#version: 0.2 - Trained by `huggingface/tokenizers`
e r
i n
o n
a n
o r
e s
a t
Ġ S
Ġ T
a r
Ġ C
a m
Ġ /
i s
Ġ B
e n
er s
l l
t h
c k
a s
i g
Ġ A
o u
Ġ G
i t
a l
Ġ M
in g
r e
c h
o l
Ġ P
e l
r i
at e
o m
Ġ H
o t
ĠS t
Ġ R
e d
i d
a d
u r
Ġ D
h t
l e
Ġ F
ĠSt ate
s t
l a
Ġ -
i a
Ġ b
ĠT ig
ĠTig ers
o w
Ġ N
o f
Ġ d
h e
o o
e t
u n
Ġ |
Ġ th
Ġ I
ĠB u
an d
i c
i l
Ġ L
Ġ w
i r
u s
Ġ (
Ġ s
is t
ck s
e c
Ġ W
e x
u t
Ġ m
Ġ O
Ġ f
h a
Ġ Y
u b
Ġ a
c om
t p
Ġ K
/ /
: //
ht tp
Ġ E
e am
i m
i es
e v
i on
Ġ 1
Ġth e
0 0
o g
a y
Ġ of
es t
k e
o s
Ġ t
a g
Ġ U
ĠC ar
h i
Ġ 2
m s
en t
v e
Ġ c
A A
H L
am p
n e
ð Ł
Ġ p
ms on
Ġ h
i ll
Ġ V
Ġ g
ig ht
ĠG am
ĠBu ll
r o
Ġ Ċ
ur n
i f
an t
e m
1 7
Ġ y
Ġ in
en d
ĠN HL
ex as
ub urn
N e
e y
in a
http s
A uburn
u m
Ġ n
as t
e e
r a
am a
it y
1 1
S U
Ġ l
ou th
ol ina
ĠCar olina
d og
i ch
Ġ 3
id e
o cks
p r
v er
es s
ec ocks
ĠGam ecocks
C h
P S
b ama
e ar
Ġ J
an s
la bama
ĠBu ck
C F
S outh
T he
o d
p p
er e
at or
i e
or g
ou r
hi o
ĠBull dog
Ne w
ĠBulldog s
L SU
a k
a in
c t
l y
Ġ is
Ġ and
an im
ĠT ide
ĠC ri
ey es
ĠBuck eyes
ĠCri mson
1 6
a ll
a ck
b o
e ch
on t
' s
7 6
A labama
O hio
g g
l or
or n
ar t
is h
el ist
anim elist
2 0
e org
Ġ 4
as h
pr of
8 0
S t
a p
i an
m y
o b
eorg ia
O T
T exas
c e
k ies
m un
on s
am e
Ġ| |
e at
Ġ on
ĠT ech
is s
ĠU n
T h
U S
u e
com mun
A T
I N
f f
l and
n d
n et
o p
o ck
t s
t on
ï ¼
or d
ĠC ha
en n
ĠF C
oo d
il d
Ġy ou
1 5
n ight
u l
Ġ 5
Ġ 6
in al
on d
or k
ĠS p
it ed
ĠR ed
id a
ĠK night
lor ida
commun ity
ĠCha os
' t
2 2
g in
i th
t er
u g
â Ļ
on g
ĠT h
ĠT eam
ar d
ĠA gg
st eam
ev er
CF B
my animelist
ĠAgg ies
steam community
1 8
e ll
i le
q u
s e
Ġ 9
re g
Ġf or
ay s
Ġt o
AA AA
. .
1 2
1 4
5 6
7 0
C le
o st
w w
y s
â Ĺ
Ġ re
as s
ĠA m
ri c
ĠY ork
' m
A l
M ich
a v
e g
t l
u d
in e
an y
or th
ĠC h
ig an
ol or
ri b
ad o
et s
Ġ1 0
Ġn ot
ear s
1 9
5 0
9 3
A tl
G B
S p
T eam
a w
i k
i v
i am
i ve
u st
or t
at s
ar s
ar y
it t
ĠD u
Ġb e
ir gin
Ġm y
ant a
ator s
ĠUn ited
âĻ Ģ
reg on
Cle mson
Atl anta
irgin ia
0 3
E R
a id
c o
d er
d inal
r y
r on
Ġ 8
Ġ k
Ġ r
an g
ĠT he
ĠT exas
ĠG ators
ĠM a
ing ton
ĠP r
ot s
ĠR e
Ġm e
ion s
ĠCar dinal
Ġ2 0
ash ington
ĠKnight s
2 00
4 4
F lorida
G eorgia
T X
a b
l d
o c
p er
t e
ã ģ
ar e
ĠC ont
ĠA s
om a
ĠH us
la y
il es
ex t
ut or
ĠE n
Ġh ere
11 9
76 56
prof iles
âĹ ķ
rib utor
ĠCont ributor
ĠHus kies
7656 119
) ,
1 0
C olor
D R
M T
Q u
i ck
m an
o ll
s er
t t
u ck
â ĺ
Ġ ha
an es
en s
ou g
ol d
el s
ow l
ow bo
Ġw ith
ec t
ðŁ Ķ
ĠBull s
prof ile
ĠDu cks
owbo ys
1 3
2 6
H I
N ot
W ashington
e p
i ed
i ke
i pp
k s
t y
Ġ [
Ġ v
Ġ it
Ġ he
on e
ĠC owboys
ĠB la
ĠB owl
ou t
ĠG eorgia
ur ric
un k
ĠO ne
ĠU ser
bo x
Mich igan
ðŁĶ Ķ
urric anes
A r
O U
P r
T O
T ext
V irginia
a c
h oma
i re
k la
n i
u ll
â Ģ
Ġ '
Ġ Z
er n
in s
on a
or e
ĠB l
ĠA tt
ĠH aw
ĠF an
ow n
Ġd ays
oo oo
end ee
ak ers
kla homa
ĠAtt endee
3 7
5 3
B ot
F F
I I
M A
M ar
M iss
T R
W a
X box
a z
b er
e a
h at
m on
o v
o es
o kies
r ad
r ag
r ish
t ing
u ff
à ¼
Ġ &
Ġ X
Ġ j
Ġ ch
or s
ĠC oug
ĠB ot
it ch
re d
ĠH okies
ĠR ock
ĠD ame
ĠD DR
ĠF ight
Ġth is
ĠI rish
ĠL ong
ĠL ions
ir d
ĠW ol
ĠY an
ev el
Ġ1 6
ast er
OT T
iss ipp
Th is
iam i
aid ers
ãģ ¤
7656119 8
Color ado
MT L
Miss issipp
ĠCoug ars
ĠFight ing
Mississipp i
2 4
7 00
A ll
E n
H AT
K E
M an
M od
O klahoma
c ats
e f
e al
f ord
g ers
h er
h orn
i z
k a
m er
o y
o on
o is
r om
s y
Ġ i
Ġ la
Ġ us
Ġ are
in es
an th
ĠS c
ĠT ro
ĠC om
ou s
ĠG TX
ĠG old
ĠH urricanes
ĠR aiders
ur g
st on
Ġb ut
Ġd on
Ġd id
un der
ĠO regon
ĠU S
Ġc l
ill e
ĠV ol
if ied
Ġy our
ver ines
Ch ild
.. .
ww w
ĠCh amp
ab y
ĠRock ies
ĠLong horn
ĠWol verines
ĠGold en
ĠLonghorn s
6 0
8 7
A L
C S
I S
K ni
N o
S h
U n
U CF
W ar
a el
a cks
c le
e ad
h ere
l t
n t
o th
o ot
p h
r ing
u p
v an
v ille
± S
Î ±S
â ľ
Ġ as
Ġ Qu
er an
at ri
at ion
ĠB ears
ĠA n
ĠA r
ĠA ll
ĠM iami
re e
re at
ol es
st er
ow a
ĠN orth
ĠN itt
he ever
et eran
ĠW ild
ke es
ag e
ðŁ ĩ
ĠV eteran
ĠGam ing
end er
all y
art ans
US A
ĠSp artans
Ġ10 80
Not re
ĠYan kees
Kni cks
ĠNitt any
ĠWild cats
! !
' ll
3 0
5 2
6 9
9 0
A H
A R
B e
C at
C al
D E
E s
I L
J am
N orth
O D
O regon
P l
P enn
P atri
Q ue
S c
T E
T or
a h
a ke
a ct
c ons
d on
d it
e b
i al
i um
o ke
o ve
p i
r u
r at
r is
r al
s h
t a
t le
u re
Ġ +
Ġ 7
Ġ at
Ġ st
Ġ à¼
in c
in k
on n
on es
an c
an ford
ou ston
al e
ĠM ich
ing s
re w
re ad
ĠP ar
ĠP oll
el b
ri z
ri ck
ĠH un
id er
ĠD ays
le t
ĠF lorida
ow er
Ġd o
oo k
Ġs h
os e
hi ef
ne y
em in
Ġl ike
ct ion
ont o
art y
ap t
US F
AAAA AAAA
ĠCardinal s
Ġ20 17
anth ers
Tor onto
hief s
1 00
4 5
4 9
7 3
A M
A N
A P
A riz
B ar
G E
G r
H ER
I P
I f
L akers
L evel
M in
M ed
M IN
M aster
N D
O ne
R ock
U G
V er
_ _
b els
b urg
e in
g ain
h n
i P
i i
i o
i x
j ans
l es
l van
m e
m et
o x
o in
o ch
r ans
y d
y z
y es
Ġ "
Ġ @
Ġ or
Ġ ðŁ
Ġ ever
er v
er ator
on f
an e
an k
at o
ĠS emin
ar ch
ĠB e
ĠB r
ig h
ou is
al ity
ĠM od
re am
ol og
ĠP al
ĠP enn
ri ve
ate d
ĠH er
ad e
ad i
ur r
ĠD ev
la ir
Ġb l
Ġd eat
oo p
un te
Ġth at
ic s
ic t
Ġw e
us e
Ġs o
ĠY OU
ĠE l
est er
ag o
ag er
if e
if orn
17 76
ee p
Ġl ove
Ġ3 0
ess ee
Ch oo
ĠJ o
ans as
our ne
Th under
IN G
enn essee
ell o
ĠAm az
ĠMa ch
ĠRe bels
ĠAs cle
âĺ ħ
Ġha pp
ĠHaw ks
KE K
ĠTro jans
ĠVol unte
ĠChamp ion
Patri ots
pi us
elb ourne
Ariz ona
lvan ia
yz en
ĠSemin oles
Ġdeat h
iforn ia
ĠAmaz ing
ĠAscle pius
ĠVolunte ers
3 3
3 5
5 22
6 5
7 4
7 9
B O
B l
B ull
C P
C he
D D
D rag
E x
F unk
G OD
I C
I n
I owa
M ary
N A
O L
P ack
R yzen
S C
S k
S am
T ennessee
V A
W est
W HAT
_ âĹķ
a ch
a ce
b l
c c
c m
d am
f t
f or
g o
g t
g er
g land
h o
h z
i b
i ers
k ansas
l in
l ing
l adi
m ent
p ir
r ist
s el
u y
u al
z o
¸ ı
ã Ģ
ï ¸ı
Ġ e
Ġ en
Ġ ne
Ġ qu
Ġ âĹķ
Ġ âĢ
Ġ ãģ¤
Ġ Î±S
er m
in y
in ce
in ois
or ld
at h
at ch
ĠS h
ĠT er
ar l
ar m
ĠC F
ĠC ub
ĠC orn
ĠC hiefs
is e
is cons
ĠB E
ĠB ig
ĠB ad
ĠB aby
ers on
ll inois
as e
ig n
ĠA T
ĠA labama
ou ld
ou nt
al in
ol ut
ĠP ro
ĠP anthers
ri ors
ĠH el
ĠH ouston
id s
ad a
Ġb est
ĠN OT
Ġd rive
ĠI llinois
ic a
ic ago
il s
il y
ĠL e
Ġw h
Ġw ill
ĠW est
ut y
ĠO ct
Ġf rom
ĠY ell
Ġa gain
ĠE s
ĠE gg
ev en
ke yes
hi p
ent uck
Ġc an
Ġp ro
Ġp lay
ill ary
ĠV irginia
Ġg o
if u
end s
ra c
ra p
ra v
Ch icago
ĠJ ack
St anford
ian a
ob er
ï¼ ¥
ĠTh ree
Mich ael
ik ato
iam ond
Ġha ve
ĠBla cks
ĠBl ue
ĠHaw keyes
oooo oooo
Wa ikato
red dit
76561198 2
sy lvania
ĠQu akers
Cal ifornia
Jam es
Ġà¼ ½
ĠMich igan
rew man
ĠHun ting
ĠPenn sylvania
ĠDev ils
Pack ers
ĠâĹķ _âĹķ
ĠCub s
iscons in
ĠYell ow
entuck y
ĠJack ets
Michael a
0 6
2 1
2 8
5 7
6 8
7 5
8 4
8 8
9 9
; &
A D
A S
A Y
A le
A nd
A ust
B al
B est
B ro
B ost
B ron
C N
C l
C el
C HI
D o
D iamond
E N
E U
E AH
F it
G A
G TX
H D
H H
I m
I t
I nd
J o
K A
K B
L L
L u
L y
L ord
L AL
M P
M y
M elbourne
O n
O p
O r
R ed
R ut
R ich
S T
S ec
S heever
T S
T i
T o
T ot
T ic
T reat
T rick
U nd
V E
W hat
W HER
W isconsin
Y Y
Y ou
Y EAH
a i
a j
a ur
a ir
a ul
a ifu
b ad
b le
c el
c os
d a
d ay
e w
e er
e ers
f i
g ur
h one
i ot
i ant
j i
k y
k in
k ats
l er
m ond
n es
o k
o ol
p l
r am
r ot
r ay
s u
t i
t ics
u per
w itch
w here
x James
y th
y le
z a
¨ ðŁĩ
Ì Ĺ
ã Ĥ
Ġ :
Ġ z
Ġ an
Ġ our
Ġ ass
Ġ any
Ġ up
Ġ even
Ĳ Ĭ
er b
er g
in st
in um
on k
on ville
an n
es e
at er
at ive
at inum
ĠS T
ĠS e
ĠS y
ĠS un
ĠS outh
ĠS her
ĠT r
ĠT ow
ĠT HAT
ar f
ar let
ĠC E
ĠC or
ĠC at
ĠC ent
is m
ĠB and
ĠB ear
ĠB oot
th e
as u
as on
ĠA l
ou d
ou se
ĠG B
ĠG C
ĠG W
it e
it al
al c
al k
ĠM E
ĠM c
ĠM an
ĠM ad
ĠM ount
ĠM CN
re t
ch ester
ĠP l
ĠP ower
ĠP oin
el y
ri d
ri f
om in
ĠH orn
ĠH ello
ot ect
ĠR am
ĠR ev
ĠD rag
ĠF r
la ve
Ġb ot
Ġb ad
Ġb ec
ĠN ot
of f
of ess
Ġd r
oo per
ĠI I
ĠI n
il ia
ĠL on
ĠL SU
ĠL ouis
Ġw r
ir l
us s
Ġs he
Ġs ince
Ġm an
Ġm ade
ĠO n
Ġf ood
ha w
ĠK ing
ĠE x
Ġ1 20
ay lor
Ġt oo
Ġ2 90
ve g
ðŁ Į
ðŁ ĲĬ
Ġp arty
Ġh er
ill s
Ġg ood
Ġg oes
em oc
Ġin t
um an
Ġn o
Ġn ever
ast a
Ġl ife
Ġ3 6
ver n
ver ified
Ch rist
ain eers
Ġ4 0
eat tle
Ġon ly
IN F
ff ic
op h
Ġ6 700
Ġ9 80
Ġre ad
ric a
Al p
av al
19 4
iv es
Ġ20 15
ĠAs pir
ĠEn och
ĠEn gland
7656119 80
Qu ality
oll ow
Ġhe ll
ĠBla ck
out ub
TO R
ull y
âĢ ¿
rad es
Man chester
Mod erator
Ġla w
Ġus er
ĠSc arlet
Ġcl ass
Un ited
War riors
acks onville
ĠNorth ern
ðŁĩ ¨ðŁĩ
Es s
ial ist
rat ic
GE TS
UG GETS
Ver ified
iP hone
yd ney
olog y
ict or
Ġwe ird
ĠMach ine
âĺħ âĺħ
Bull s
Mary land
ladi ator
ĠTer rap
ĠCF II
ĠBad gers
olut ion
ĠHel met
ï¼¥ ï¼
ĠHunting don
Ale xJames
Bost on
Cel tics
Fit z
Op Tic
Rut gers
Rich mond
WHER E
ĠTow ers
ĠCent ral
ĠBear kats
ĠMount aineers
ĠMCN UGGETS
ĠRev olution
emoc ratic
Christ ian
ðŁĩ¨ðŁĩ ¦
ĠTerrap ins
AlexJames Fitz
' d
0 5
0 9
2 3
3 9
4 8
4 80
4 30
5 4
5 93
6 1
6 4
6 50
7 8
9 5
A B
A C
A ut
A ct
B I
B L
B r
B ast
B aylor
C A
C L
C an
C re
C ol
C la
C onf
C rewman
D on
D is
E O
F W
F or
F ly
F uck
G T
G W
G ame
G hz
H E
H U
H it
H urricanes
H OU
H ING
H illary
H ouse
K S
K yle
L um
L eg
L ein
M C
M u
M er
M pr
M ass
N I
N Z
N in
O N
O S
O ffic
P C
P L
P ol
P ro
P ain
P ost
P lay
P ac
P oke
R E
R I
R T
R ight
R ob
R av
R ep
R eal
R AP
S B
S D
S E
S I
S L
S ha
S ub
S ain
S eattle
T C
T it
T rans
V y
V ik
W ell
X X
X e
Y as
Y our
a u
a im
a pp
a ff
a ug
b s
b y
b or
b est
b out
b acks
c a
c l
c an
c ul
e th
e et
e em
f am
f ul
f ort
f Mpr
g e
i el
i et
i ver
i qu
i oc
i ous
j ect
j oy
k as
l bor
m m
m in
m ing
m ilia
n ol
o id
o oma
p e
p s
p t
p le
p ut
p ack
q ue
r ow
r os
r ess
r ang
s he
s heever
t ra
u es
u ig
u ch
u pp
u ally
v es
w o
w est
w ag
w eat
w are
w orld
y ke
y cl
z e
© R
Ì ¼
Í ī
Î ©R
â Ħ
â Ī
å į
Ġ 0
Ġ x
Ġ le
Ġ un
Ġ http
Ġ ro
Ġ https
Ġ eat
Ġ ï¼
Ġ âľ
Ġ Que
Ĵ ¯
ĺ Ħ
er y
in d
in n
an ic
or m
or ts
or ter
or mon
es id
at es
at ing
at ur
at ions
at ure
ĠS E
ĠS q
ĠS w
ĠS ha
ĠS ub
ĠS ide
ĠS oon
ĠS ox
ĠS ky
ĠS atur
ar k
ar in
ĠC W
ĠC an
ĠC al
ĠC ap
ĠC ost
ĠC any
ĠC olor
ĠC iv
ĠC lin
ĠC ycl
am m
ĠB i
ĠB all
ĠB itch
en h
ck er
as ka
ig inal
ig aby
ĠA i
ou nd
ĠG S
ĠG en
ĠG uy
ĠG iant
ĠG oph
ĠG aim
ĠG igaby
it ing
it ion
it ts
al ty
ĠM K
ĠM er
ĠM ag
ĠM em
ĠM ak
ĠM aster
re y
re en
ch er
ol m
ĠP CS
ĠP ink
ĠP arty
ĠP uig
el f
ri a
ri m
ri um
om b
om er
ĠH P
ĠH e
ĠH ar
ĠH ot
ĠH ere
ot a
ot land
ĠR es
ed er
id ian
ad or
ur s
ĠD el
ĠF ire
Ġb ow
Ġb ack
Ġb ook
Ġd ie
Ġd ue
Ġd oes
Ġd ream
Ġd ating
he at
et te
un at
Ġth ere
Ġth ings
ĠI R
ĠI d
ĠI nd
ĠI II
ĠI owa
ĠL eg
ĠL TR
ĠL EO
Ġw as
Ġw ant
Ġw hat
ir st
us a
Ġs ay
ist a
ĠW ashington
ut t
Ġm ain
Ġm uch
ĠO hio
ĠO ld
ĠY our
Ġa ll
Ġa ction
ĠK ev
ĠK ill
ĠK entucky
ĠE v
ĠE ag
ĠE milia
Ġ1 1
Ġthe y
00 0
og s
ay ne
est ro
ke k
Ġt ie
Ġt rades
Ġc re
Ġc ont
Ġc ons
ðŁ Ĵ¯
ðŁ ĺĦ
Ġp ut
Ġh as
Ġh and
Ġh old
Ġh igh
ĠV ider
Ġg irl
if f
em i
Ġy ears
end on
end or
Ne il
um b
Ġn oth
ee k
ra in
Ġl ong
ich i
pr ess
Ch arl
ĠJ unk
ĠJ ones
ĠJ acksonville
od es
our s
ak i
ain t
Ġ4 8
St alin
ob al
ons erv
Ġon e
Th at
AT E
AT I
op er
ond on
ĠSp read
gin eer
âĻ ¡
ĠTh ird
ĠTh read
56 70
Ġre d
ĠAm er
ĠAm in
Al an
av ers
eg a
ud e
ĠCh oo
Sp an
Sp urs
ars ity
ER O
ry ing
ĠMa x
ĠPr inc
ĠPr otect
ĠPr ofess
oc ialist
lay er
âĺ Ń
oug ht
HI P
ep uty
Ġhe ad
ðŁĶĶ ðŁĶĶ
TO M
MA GA
Mar k
Mar lbor
à¼ ¼
Ġch at
evel oper
Ġ16 00
eal th
ĠTro y
CS S
oth er
ĠQu am
ĠAn a
ĠAn g
ĠAr kansas
!! !
DE T
Es se
Pl us
Pl atinum
Sc otland
TE AM
Ġst ill
ĠPar k
Ġdo ing
AAAAAAAA AAAAAAAA
Bar cel
Bar ista
Gr and
Min nes
Med ioc
One Plus
ĠBe avers
Choo se
Ġhapp en
Bl ood
Che ese
Drag on
Sk ooma
Ġen joy
Ġne ed
Ġqu iet
ĠâĢ ĵ
ĠCorn dog
ĠNOT HING
ĠOct ober
rav en
reddit or
Bron cos
Jo hn
Lu kas
yth ing
Ġ: (
ĠSher iff
ĠBand wag
ital ist
ĠPower Color
ĠRam s
Ġwr ong
veg an
ðŁĲĬ ðŁĲĬ
Alp ha
aval iers
ĠAspir ing
ollow ing
TOR S
Fly ing
Hit ler
Lein ster
Mu rica
Rob ot
RAP TORS
Sain ts
Tit ans
Vik ings
Xe on
Yas iel
aug ht
nol ia
put er
west ern
âĦ ¢
âĪ Ĩ
åį Ĳ
Ġro b
esid ent
ĠSoon ers
ĠSatur day
ĠCap italist
ĠCost ayne
ĠColor ado
ĠClin ton
ĠCycl ones
ĠGoph ers
ĠGaim an
ĠGigaby te
itts burg
ĠLeg ends
ĠKev in
estro y
Ġcons ent
ĠVider i
ĠJunk ie
Stalin åįĲ
onserv ative
Marlbor o
Barcel ona
Minnes ota
Medioc re
ĠBandwag on
' re
) (
) )
) /
* *
. "
0 2
0 7
0 53
1 17
2 5
2 7
2 9
2 50
3 2
3 15
3 70
4 0
4 7
4 37
4 24
4 74
5 70
6 3
6 6
6 80
6 100
7 2
7 12
7 70
7 19
7 700
8 2
8 6
8 00
8 26
8 53
9 2
9 7
A n
A p
A s
A z
A id
A st
A GB
A dam
A bs
B S
B u
B at
B as
B ig
B la
B OT
B US
B ul
B uff
B ring
C H
C K
C T
C W
C ar
C ha
C hi
C ard
C AAAA
C TO
C AR
C onn
C apt
C hiefs
C rot
C asta
C rying
D I
D P
D es
D ar
D en
D ig
D ev
D em
D ang
D oes
D eputy
D TOM
E m
E ur
E inst
F I
F K
F U
F er
F ar
F am
F al
F ri
F il
F land
F ender
F use
G H
G N
G P
G S
G Y
G l
G en
G ast
G ord
G reat
G erm
H Z
H e
H ow
H un
H ul
H ead
H ouston
H ello
H RT
I O
I w
I BUS
I GN
J C
J org
J ack
J ul
J unk
K C
K D
K Y
K at
K it
K ing
K eep
K entucky
K ool
L E
L o
L ee
L aw
L ook
L ouis
L ondon
M a
M c
M r
M on
M at
M al
M and
M il
M im
M ag
M ant
M ech
M orth
M iami
M oon
M IL
M ake
N C
N J
N T
N a
N on
N ev
N ight
N ast
N ame
N AT
N ER
O M
O P
O R
O b
O l
O ver
O PS
O ct
O VE
O KC
P D
P E
P H
P I
P P
P o
P aid
P ois
P anthers
P ix
P IC
P aul
Q S
R A
R L
R X
R h
R o
R en
R ow
R og
R est
R aid
R IS
R apt
R iot
S G
S V
S l
S er
S an
S en
S he
S il
S qu
S ys
S KA
S uper
S ydney
S emi
S ATI
S TEAM
S PIC
T M
T N
T T
T en
T ent
T ens
T KD
U A
U K
U p
U s
U pp
U CP
V Y
V a
V in
V al
V Un
V KB
W A
W e
W y
W es
W ish
W CS
W VUn
X BL
Z j
] [
a x
a il
a ve
a No
a use
a ily
b r
b t
b ec
b ack
b ug
b ring
b ah
b oop
b eep
b utt
c u
c er
c ing
c ed
c em
c ap
c rib
c io
c lave
c Iw
d en
d om
d ry
d ied
d own
d ead
d ict
d emocratic
d Head
e h
e ol
e ed
e ur
e op
f o
f w
f er
f ol
f ri
f ter
g b
g s
g u
g ar
g al
g ed
g ay
g ladiator
h h
h v
h ing
h el
h ir
h us
h ard
i er
i at
i en
i ol
i que
j a
k o
k ers
k ill
l o
l s
l u
l ow
l oo
l if
l ine
l ike
l uff
m g
m es
m en
m and
m ormon
n y
n ad
n ow
n ack
o ic
o ver
p ar
p re
p ur
p ic
p ro
p ort
p asta
p ful
p orts
r r
r ar
r and
r us
r um
r ust
s ch
s iers
s Up
t o
t w
t in
t us
t itt
t ober
t enh
u ar
u ate
u ild
u ine
u ars
u red
v in
v ir
v ador
v ette
w h
w ay
w ear
w ard
w arf
w au
w ealth
w ls
w sUp
x s
x ast
y b
y o
y Bot
y where
y vern
y outub
y pasta
z ers
z da
¥ ³
§ å
ª ŀ
® ï¼
¯ âĺ
° Ð
° ï¼
± or
² ł
² ï¼¥ï¼
³ ï¼¥ï¼
º cio
½ ¡
Ã ±or
Ã ºcio
Ä ±
Ì ¥
Ð °Ð
Ñ ģ
à ²ł
â ĳ
ã ĥ
å ¥³
æ ķ
æ ĸ
æ ľ
è ªŀ
ï ½¡
Ġ .
Ġ =
Ġ u
Ġ Ã
Ġ al
Ġ ad
Ġ ex
Ġ im
Ġ if
Ġ end
Ġ anim
Ġ 70
Ġ 03
Ġ out
Ġ own
Ġ let
Ġ rac
Ġ over
Ĳ ¯âĺ
ķ ï¸ı
ŀ ÌĹ
Ł Íī
ł ï¸ı
er co
er ry
in et
in ct
on y
on th
an ey
an ce
an zo
or st
or ia
or ris
or backs
es ent
es ap
ĠS W
ĠS i
ĠS m
ĠS al
ĠS ch
ĠS ec
ĠS ent
ĠS AA
ĠS qu
ĠS TR
ĠS ea
ĠS urr
ĠS lave
ĠS ydney
ĠS SD
ĠS aint
ĠS nack
ĠT B
ĠT X
ĠT i
ĠT ar
ĠT en
ĠT all
ĠT op
ĠT eb
ĠT rans
ĠT alk
ĠT HE
ĠT wo
ĠT rain
ĠT WCS
ar co
ar za
ĠC A
ĠC R
ĠC l
ĠC o
ĠC ate
ĠC amp
ĠC ity
ĠC ob
ĠC ul
ĠC up
ĠC ru
ĠC onn
ĠC onf
ĠC rewman
ĠC avaliers
ĠC onservative
ĠC rus
am es
is co
ĠB S
ĠB ack
ĠB ron
ĠB ots
ĠB ea
ĠB rew
en ix
ers ity
ers burg
th at
th eb
ck y
as a
as m
ig ation
ig ged
ĠA d
ĠA uburn
ĠA lt
ĠA bout
ĠA eol
ou n
ĠG T
ĠG l
ĠG o
ĠG em
ĠG od
ĠG reg
ĠG ND
ĠG alin
ĠG ladiator
ĠG arza
it s
it as
it ter
it su
it igation
al i
al s
al an
al ing
ĠM e
ĠM k
ĠM on
ĠM en
ĠM ed
ĠM oo
ĠM us
ĠM ill
ĠM ess
ĠM iss
ĠM ust
ĠM ore
ĠM elbourne
ĠM ids
ĠM alc
ĠM arin
ĠM other
ĠM HZ
re ak
ch ie
ch ann
ol as
ol ic
ol ith
ol fi
ĠP in
ĠP ri
ĠP oo
ĠP et
ĠP ast
ĠP ra
ĠP ie
ĠP lay
ĠP oke
ĠP ho
ĠP erson
ĠP ittsburg
el d
el i
el ich
ri x
ri an
om e
om ing
om ot
ĠH R
ĠH oo
ĠH ond
ĠH ard
ĠH ots
ĠH DD
ĠH illary
ĠH uman
ĠH ERO
ĠH anzo
ĠSt anford
ĠSt ates
ĠSt olfi
ĠSt rix
ĠR ond
ĠR eg
ĠR az
ĠR ally
ĠR ose
ĠR aj
ĠR uss
ĠR BI
ĠR omer
ad es
ad ers
ad min
ur a
ur es
ur ant
ĠD O
ĠD on
ĠD est
ĠD av
ĠD ream
ĠD eveloper
ĠD aught
ĠD urant
le B
le h
le y
le ts
ĠF or
ĠF ies
ĠF ish
ĠF eat
ĠF lair
ĠF alc
ĠF eet
ĠF Na
ĠF TM
st inct
Ġb o
Ġb us
Ġb itch
Ġb onk
Ġb ills
Ġb tw
ow down
ĠN C
ĠN ich
ĠN ord
ĠN av
ĠN ew
ĠN orris
Ġd ish
Ġd own
Ġd emocratic
Ġd amm
Ġd estroy
Ġd aily
he ad
he art
et a
et ts
un a
un e
un ch
un ction
un dry
ĠI ra
ĠI MP
ĠBu t
ĠBu ick
ĠBu sch
ic o
ic an
ic ed
ic ut
ic ated
il iz
il ib
ĠL v
ĠL ag
ĠL ord
ĠL ea
ĠL ead
Ġw ent
Ġw ish
Ġw ash
Ġw ood
Ġw ould
Ġw aifu
Ġw cing
ir ly
ir ty
ir ming
us etts
Ġs c
Ġs on
Ġs ex
Ġs ha
Ġs ub
Ġs ee
Ġs uck
Ġs ac
Ġs upp
Ġs alty
Ġs ocialist
ist ing
ec s
ec el
ĠW A
ĠW ar
ĠW ill
ĠW ere
ĠW ard
ĠW ho
ĠW orld
ĠW aifu
ĠW ater
ĠW HIP
ĠW yvern
ut o
ut s
ut ch
ut ism
Ġm em
Ġm ob
Ġm erry
Ġm onth
ĠO ur
ĠO HL
ĠO klahoma
ĠO rang
ĠO UA
Ġf r
Ġf an
Ġf ire
Ġf anc
Ġf lair
Ġf eder
Ġf ought
Ġf ollowing
Ġf unction
ĠY es
ĠY ou
ĠY ears
ĠY outub
ĠY elich
Ġa pp
Ġa utism
ĠK e
ĠK HL
ĠK OT
ĠE Q
ĠE U
ĠE ast
ĠE NER
ĠE RA
im e
im mer
im gur
ev e
ion al
Ġ1 5
Ġ1 44
Ġ1 800
Ġthe m
og ic
og don
est on
est ar
est ling
ke e
os s
os u
Ġt ak
Ġt ake
ag ram
ag uars
ĠU AB
Ġ2 8
Ġ2 00
Ġ2 68
ent le
Ġc at
Ġc ut
Ġc op
Ġc ould
ne w
ne ll
ðŁ į
ðŁ ĳ
Ġp er
Ġp ay
Ġp art
Ġp erson
Ġp eop
Ġh is
Ġh ug
Ġh ours
ill ing
ĠV endor
ĠV arsity
Ġg b
Ġg r
Ġg od
Ġg ame
Ġg ive
Ġg eek
ĠGam e
ro ll
ro id
em ple
17 0
17 00
ĠNHL R
Ne br
ey e
um ni
Ġn on
Ġn ow
Ġn ame
ra f
ra ft
Ġl ate
Ġl ash
Ġl itigation
Ġ3 8
Ġ3 18
Ġ3 712
ess es
ear ch
ĠJ r
ĠJ oy
ĠBuck y
CF I
od y
pp y
ie f
ie ature
ct or
ly bt
all s
all ed
all ow
lor d
art er
20 16
20 12
20 73
20 88
Ġ4 2
Ġ4 570
St ar
St ick
ap er
ce ll
ĠUn verified
US MC
US NT
commun icated
AT P
op e
enn ium
ood le
ood raven
Ġ5 00
Ġ6 50
Ġ6 03
inal s
22 2
22 8
ith out
ter n
ug ar
ĠTh ust
ĠTh under
ĠTh rot
18 4
qu ilib
se ason
Ġ9 60
14 1
ost s
âĹ ¡
Ġre ally
ĠAm ster
Al ber
Al umni
ud d
ĠCh ar
Ġ10 7
Ġ10 50
19 8
Sp ider
Sp ecs
iv ersity
ort o
itt alk
ĠDu ke
ry a
ron e
Ġ8 4
Ġk it
Ġk ing
Ġk now
Ġk new
Ġr u
Ġr est
Ġr igged
ĠMa c
ĠMa zda
ĠPr usa
ĠRe ad
Ġme ow
Ġ20 16
44 69
ãģ ¥
ĠEn gineer
âĹķ âĢ¿
ick er
âĺ łï¸ı
ens land
ect icut
13 6
26 72
ep cIw
Ġv ictor
Ġv iol
ĠBla zers
box gladiator
Ar s
Ar t
Ar my
Ar kansas
Pr inc
Pr esident
ac y
âĢ Ļ
ĠZ immer
ĠBl oke
ĠBl ues
ĠBl oodraven
37 2
53 2
FF F
FF FFF
Mar ia
Wa iting
mon wealth
ov es
uff in
Ġj ack
Ġj ust
Ġj ok
Ġch ief
red died
ĠYan k
76561198 2088
En och
En for
En erg
iz ard
ois e
Ġi OS
Ġla ug
Ġla undry
Ġus ers
Ġus ed
ĠSc ully
ĠSc ien
ĠCom mun
ĠCom puter
ĠCom monwealth
urg ery
Ġdid n
ĠUS A
ĠUS C
ĠUS F
ĠUS HL
Ġcl ub
ĠVol can
87 437
IS S
ph is
ph oria
âľ ¨
âľ ¿
ĠNorth western
52 5
52 136
AH DI
Be er
Be cky
Cat alan
Cal vin
IL L
North land
Que en
Que bec
act us
act uar
ral ia
sh off
Ġà¼ ¼
anc isco
ĠMich ael
ĠPar ent
Ġsh ower
Ġsh ittalk
100 0
AN I
Gr ant
Med ium
Rock ets
Rock tober
UG W
__ __
iP ad
ii ii
me ow
met to
ĠðŁ Ĵ
ĠðŁ Ĳ¯âĺ
Ġever ything
Ġever ywhere
erv ation
ank t
arch ist
ĠBr ight
ĠBr ogdon
ĠMod erator
olog ist
ĠPal s
ĠPal metto
ĠHer cul
Ġbl ood
ĠEl ite
ĠJo e
ĠJo hn
ĠMach ado
522 5
522 5225
Bl aney
CP L
Che ers
Ex mormon
Ex communicated
NA VY
West ern
ach usetts
for mer
go vern
ãĢ ģ
Ġe quilib
iny asa
atch es
ĠSh orter
ĠSh owdown
arm a
ĠCorn hus
ign er
Ġwh y
Ġwh en
ĠOct ane
ĠEs q
ĠEs ports
hip men
Ġpro ble
rac use
oooooooo oooooooo
765611982 87437
57 76
AD HD
AY ANI
Aust ria
Aust ralia
Bal dHead
Cl oud
Do ctor
EN T
EU phoria
Im gur
Ind iana
Ly n
Ly ing
On ion
Or iginal
ST L
Sec ret
Tot tenh
Und erg
Und erco
aur esap
inst agram
ĠSe Ã±or
ĠSy racuse
ĠTr ash
ĠTr ooper
ĠCor vette
ĠCor nell
ĠCat ter
the ist
ĠMan ager
ĠMad rid
ĠPoin t
ĠPoin ts
rif iced
ĠHorn ed
ĠHorn ets
ĠDrag ons
ĠFr ogs
Ġbec ause
Ġbec ome
ĠNot re
Ġdr ink
ĠIn ter
ĠLon zo
ĠLon estar
ĠOn ly
ĠOn ager
haw ks
ĠKing dom
ĠEx tra
ðŁĮ Ĳ
INF J
INF P
Ġread y
Ġread ing
ĠBlack mon
Ess ex
Ess endon
âĺħâĺħ âĺħ
Aut omot
Act ually
Bast ion
CL G
Can ada
Cre ator
Col umb
Cla wsUp
Conf irming
For ce
KS NA
Mass achusetts
Nin t
Offic ial
Pol ish
Pain kill
Post season
Pac ers
Poke y
Rav ens
Rep osts
Vy Us
aff e
fam ily
fort unat
iqu es
ious ly
she ets
weat her
Ġle ft
ĠQue ensland
anic al
ĠSE C
ĠSq auresap
ĠSha cker
ĠCany ons
ĠCiv ic
ĠBi ology
ĠGen ji
ĠGiant s
ĠMK II
ĠMer idian
ĠMag ic
ĠMak es
ĠHe els
ĠHar ris
ĠHot ty
heat ware
ĠId i
ĠInd iana
Ġmain s
ĠEag les
kek z
Ġnoth ing
Ġlong er
Charl ie
ĠSpread sheets
Ġred d
ĠAmer ican
Span ish
ĠPrinc esses
ĠProtect or
ĠProfess or
ĠAng els
Ġhappen ed
Ġquiet kekz
John theb
Ġrob ot
053 3
474 2
Ap ost
Ast ros
AGB AYANI
Bat ting
Bas ic
Bla ck
Bul gar
Card inals
CAAAA AHDI
Crot ty
Casta ic
Des igner
Den ver
Eur ope
Einst ein
Fer rar
Fal cons
Fri end
Fil m
Fland ers
GH z
Gl obal
Gen uine
Gast on
Gord on
Germ any
Hul me
IBUS HI
Jorg e
Junk rat
Kit shoff
Law bring
Louis ville
Ma ud
Mon olith
Mil wau
Mim i
Mag nolia
Mant is
Mech anical
Morth al
Nev ada
Nast y
NAT O
Pois on
Pix el
Row butt
Rog ue
Raid er
RIS ON
Rapt ors
SV HD
Sys admin
SATI RE
SPIC Y
Upp er
Wy oming
Wes ley
WVUn ick
Zj L
aNo Z
crib er
fri ends
gs i
hel pful
nad hir
titt ieature
wls earch
xast ik
youtub e
®ï¼ ´
°ï¼ ²ï¼¥ï¼
³ï¼¥ï¼ ®ï¼´
âĳ ®
æķ Ļ
æĸ ĩ
Ġad dict
Ġ03 8
Ġrac ist
ķï¸ı âľ¨
inet ic
ĠSal vador
ĠSAA B
ĠSurr ender
ĠTeb ow
ĠTrans criber
ĠTrain ing
ĠCamp ine
ĠCob ra
ĠCul t
ĠConf orto
ĠCrus aders
ĠBrew ers
ĠAeol us
ĠGalin ha
ĠMed ia
ĠMoo chie
ĠMill ennium
ĠMust ang
ĠMids hipmen
ĠMalc olm
ĠMarin ers
chann el
ĠPoo bah
ĠPet ersburg
ĠPra ise
ĠPoke mon
ĠPho enix
ĠHoo siers
ĠHond a
ĠHots pur
ĠRond o
ĠReg al
ĠRaz orbacks
ĠRaj on
ĠRomer o
ĠDest iny
ĠDream s
ĠDaught ers
ĠFies ta
ĠFeat ured
ĠFalc on
ĠFNa F
ĠNich olas
ĠNord iques
ĠNav y
Ġdish es
Ġdamm it
ĠIra q
ĠIMP RISON
iliz ation
ĠLag affe
Ġsac rificed
Ġsupp ort
ĠWill is
ĠWorld s
Ġmob ile
Ġmerry weather
ĠOrang e
Ġfanc y
Ġfeder al
Ġfunction ing
ĠYoutub er
ĠKOT A
Ġtak ing
Ġcop ypasta
Ġpeop le
Nebr aska
Ġlash es
Ġ318 7
Stick yBot
USNT DP
ĠThust Master
ĠThrot tle
ĠAmster dam
Alber ta
âĹķâĢ¿ âĹķ
epcIw ZjL
Ġvictor y
Ġviol ate
Princ es
ĠZimmer man
Ġjok es
reddied yke
765611982088 52136
Enfor ced
Energ y
ĠScien ce
ĠVolcan o
Calvin ist
Ġshittalk ing
ĠðŁĲ¯âĺ ķï¸ıâľ¨
ĠHercul es
govern ment
Ġequilib rium
ĠCornhus kers
Ġproble ms
76561198287437 532
Tottenh am
Underg rad
Underco ver
Automot ive
Columb ia
Painkill er
fortunat ely
ĠSqauresap ce
Johntheb oss
Bulgar ia
CAAAAAHDI FFFFF
Ferrar i
Lawbring er
Milwau kee
°ï¼²ï¼¥ï¼ ³ï¼¥ï¼®ï¼´
! "
" .
$ (
$ -
% .
' '
( @
( âĹķâĢ¿âĹķ
) &
) .
) ;
) _
) âĻ¡
* ãĢ
, .
- -
/ .
0 1
0 8
0 11
0 10
0 87
1 22
2 16
2 12
2 14
2 93
2 44
2 10
2 37
3 4
3 6
3 00
3 19
3 44
3 10
3 13
3 60
3 88
3 86
4 1
4 2
4 6
4 00
4 11
4 22
4 93
4 60
4 09
4 184
4 141
4 313
5 1
5 5
5 8
5 12
5 57
6 2
6 00
6 16
6 70
6 79
6 222
7 1
7 20
7 14
7 28
8 20
8 65
9 6
9 8
9 00
9 13
9 53
9 45
9 78
: ^
; âĹ
; --
? ?
A K
A W
A d
A h
A m
A v
A pp
A bo
A ud
A MA
A KE
A mer
A nt
A IL
A cc
A ERO
A ja
A rya
A theist
B A
B V
B i
B an
B re
B ad
B of
B and
B urn
B ear
B all
B ack
B ob
B eat
B ug
B ass
B ears
B ang
B unk
B rad
B oy
B urg
B reat
B ris
B io
B ane
B ank
B oop
B VE
B ok
B ills
B utt
B PD
B udd
B oise
C U
C i
C er
C on
C or
C am
C as
C ir
C ut
C ent
C ant
C ast
C od
C ak
C ob
C ond
C lay
C owboys
C OD
C inc
C AN
C urr
C OL
C asu
C MC
C obal
C avaliers
C onservative
C GY
C oun
C raf
C arter
C actuar
C ENT
D A
D F
D M
D S
D X
D e
D r
D u
D v
D ou
D ol
D el
D ad
D ur
D im
D ay
D est
D ra
D od
D lor
D OT
D oc
D own
D uff
D AL
D eb
D onn
D Ver
D ream
D ual
D eer
D omin
D FW
D eem
D estroy
D OM
D irty
D isting
D utch
D Cent
E E
E F
E L
E S
E V
E c
E l
E v
E at
E ar
E ve
E gg
E ff
E DR
E ston
E DE
E GE
E ND
E rr
E tern
F C
F O
F P
F R
F a
F i
F o
F r
F u
F in
F re
F el
F ir
F ut
F um
F ee
F PS
F ort
F ern
F ore
F emin
F ox
F lair
F ace
F ollow
F Cre
F au
F irst
F ollowing
F eh
F luff
F isting
F allow
G I
G L
G M
G O
G R
G o
G u
G er
G in
G al
G St
G ap
G ood
G ud
G ary
G ry
G ab
G ird
G up
G irl
G ives
G rey
G reen
G ATI
G entle
H S
H o
H at
H am
H ot
H ist
H og
H ey
H um
H orn
H ob
H eat
H els
H eal
H AR
H igh
H KB
H ai
H erb
H uman
H TC
H app
H ier
H ali
H FR
I A
I M
I U
I V
I r
I s
I re
I ex
I ron
I nt
I GE
I VE
I TT
J K
J P
J er
J on
J ar
J ay
J ess
J all
J ust
J az
J AS
J acksonville
J aguars
K en
K as
K ur
K ir
K ha
K ay
K ain
K ont
K OT
K ik
K ah
K ING
K HH
K KA
K app
K WA
K arma
K inetic
L I
L T
L V
L Y
L e
L v
L in
L on
L es
L is
L en
L as
L it
L ate
L ow
L et
L il
L im
L os
L ag
L IN
L iam
L ots
L ions
L DR
L II
L ea
L inc
L ife
L ind
L unat
L OVE
L Ãºcio
L oves
L JP
M D
M G
M I
M K
M M
M R
M W
M or
M en
M ot
M ad
M ex
M og
M ay
M ight
M em
M ont
M art
M ap
M OT
M ike
M ore
M ale
M urr
M ach
M ath
M aj
M onk
M SI
M aki
M aint
M FI
M eh
M uffin
M ENT
M EL
N E
N O
N Q
N S
N Y
N i
N u
N y
N or
N ow
N ex
N ob
N ons
N ets
N ike
N ov
N AR
N AP
N EU
N omin
N aval
N NI
N SD
N orm
N ude
N BA
N LV
O C
O G
O O
O Z
O d
O f
O q
O le
O ld
O BOT
O uts
P M
P s
P er
P an
P re
P ot
P le
P and
P ir
P ist
P og
P ant
P ast
P ee
P ul
P ard
P eg
P ine
P ort
P ER
P HI
P ire
P oy
P ower
P OL
P ach
P yth
P PL
P ittsburg
P OR
P GSt
Q U
Q row
Q DX
R U
R Y
R e
R es
R om
R ev
R os
R ash
R ond
R aw
R ik
R ive
R ipp
R aiders
R oy
R ead
R TE
R eb
R IP
R aff
R OVE
R NO
R OBOT
S K
S W
S m
S o
S y
S in
S on
S om
S ur
S le
S la
S hi
S ant
S ee
S ak
S ame
S ud
S ort
S ER
S MA
S ea
S oon
S age
S onn
S AM
S erv
S ince
S ai
S erb
S GT
S HU
S omer
S layer
S JC
S KY
S ugar
S MW
S NSD
S RY
T F
T J
T P
T w
T om
T id
T ur
T il
T ir
T ha
T im
T HL
T ee
T AAAA
T rib
T rad
T IS
T ree
T AH
T ake
T ru
T FW
T wo
T rium
T PP
T ILL
T HFR
U N
U P
U OT
U ser
U FF
U lt
U sel
U LL
U MP
U CL
U NI
U TOM
U BS
U PH
U RNO
V l
V x
V ol
V ir
V ill
V ap
V ond
V IL
V anc
V AN
V ladi
V endor
V arsity
V PI
V inyasa
V User
W B
W C
W G
W r
W en
W ill
W ra
W all
W ears
W ars
W uff
W ho
W AS
W eek
W RL
X O
X and
X BO
Y S
Y in
Y ama
Y ear
Y OU
Y SE
Y CH
Y PE
Z E
Z e
Z ir
Z ary
Z OO
] ãĢģ
^ _
_ (âĹķâĢ¿âĹķ
a e
a f
a o
a Ã
a an
a es
a ide
a ver
a uty
a iting
a ichi
a unch
a Pog
b e
b in
b an
b ar
b am
b ig
b it
b il
b ir
b ub
b ant
b ear
b ie
b all
b ian
b eat
b ass
b ane
b ase
b aj
b onk
b ps
b uild
b reak
c f
c i
c s
c y
c es
c ar
c is
c ia
c ut
c ent
c ess
c our
c orn
c ock
c ord
c ore
c Mar
c ial
c uy
c rap
c ze
c par
c rust
c asm
c ali
c raf
c alled
c actus
d k
d l
d u
d in
d an
d or
d ate
d ad
d ie
d ont
d az
d ank
d ray
d rif
d oodle
e k
e el
e im
e ms
e pp
e ird
e ago
e que
e press
e Force
f u
f x
f el
f ina
f ast
f ish
f uck
f ire
f ull
f ore
f ting
f oot
f lair
f ica
f rica
f ully
f pack
f eed
f luff
f reddiedyke
g c
g f
g l
g p
g or
g at
g en
g ot
g oo
g un
g ha
g if
g end
g ly
g rad
g ender
g eb
g amm
g Lit
h u
h w
h or
h is
h as
h and
h ic
h il
h ro
h ild
h ost
h ale
h ment
h ound
h olm
h odes
h rian
h gf
i p
i u
i as
i un
i ha
i os
i ast
i ine
i per
i ps
i Beat
i MG
j an
j as
j est
j ob
j ames
j itsu
k or
k es
k ing
k id
k ron
k ka
k Ä±
k itsu
k eli
k bps
l z
l am
l ol
l ate
l ot
l ic
l ist
l ut
l im
l ke
l ight
l ash
l ock
l ik
l itt
l uss
l ations
l ours
l itter
l oves
m C
m a
m o
m as
m el
m om
m ed
m em
m od
m ont
m iss
m ik
m ins
m ore
m aster
m ale
m ason
m ega
m lo
m par
m uffin
m lke
n c
n g
n in
n ing
n ec
n ex
n ess
n ame
n ong
n ever
n igh
n hard
n ance
o G
o ad
o il
o ha
o ak
o iss
o ys
o iv
o zo
o Best
o Car
o DF
o FC
o Oq
p y
p in
p at
p et
p us
p ub
p os
p ag
p end
p ie
p ak
p art
p ots
p ect
p oodle
p ologist
p cpar
p gha
q a
r en
r ig
r ate
r ant
r ue
r ins
r rick
r ooper
r iginal
r esent
r utch
s a
s o
s v
s x
s on
s an
s is
s as
s om
s of
s ide
s ob
s qu
s av
s man
s old
s sel
s alty
s ail
s lo
s pic
s warf
s pin
t m
t v
t an
t il
t ist
t im
t ama
t ie
t ain
t ive
t ang
t iny
t witch
t ega
t fo
t fw
t ankt
t Dual
t rig
u a
u an
u ic
u cks
u ish
u ys
u cc
u kin
u ca
u ition
u cuy
v o
v r
v is
v as
v ch
v ate
v ot
v est
v od
v ie
v iv
v ris
v erson
v ictor
v iously
w e
w ing
w ol
w all
w ish
w ame
w ood
w ays
w hat
w ater
w aiting
w bie
x x
x it
x ist
x ray
x boxgladiator
x Sonn
y h
y ou
y ch
y st
y our
y ork
y ears
y lvania
y rim
z d
z l
z y
z on
z es
z ork
z cze
z mod
~ /.
¡ ĵ
¡ ï¼
¢ ãĥ
£ «
£ ²
¤ Î
¤ ï¼
¤ §å
¥ re
¥ ï¸ı
¥ ðŁĴ¯
¥ æľ
§ Ä±
§ *ãĢ
¨ ¿
© ï¼
ª å
« ĺ
¬ ãĥ
¬ èªŀ
® å¥³
° ĳ
² Ð°Ð
² æľ
³ n
³ ķ
´ Ì
´ ne
´ ï¼
´ Ð°Ð
¸ Ð
¸ Ń
¹ Ì¼
º º
º Ð
º ãģ
» Ð
¼ ssel
½ Ľ
¾ Ð
¿ (
¿ ľ
¿ ºãģ
Â »
Ã ³n
Ã ´ne
Ã ¼ssel
Ä į
Å ł
Ì ĺ
Ì ľ
Ì ł
Ì ŀÌĹ
Ì ŁÍī
Ì ´Ì
Ì ¹Ì¼
Í Ķ
Í ŀÌĹ
Í ŁÍī
Î ¨
Î Ķ
Î ķ
Î ¤Î
Ï Ĩ
Ð ľ
Ð ł
Ð ºÐ
Ð ¾Ð
Ñ ĥ
â Ĩ
â Ķ
â ķ
â Ŀ
ä ¸Ń
ä ºº
ä ½Ľ
ä ¿ºãģ
å £«
å ¤§å
å °ĳ
æ Ĭ
æ ı
æ Ĺ
æ ³ķ
ç ¨¿
è ĩ
è ¡ĵ
é Ń
é £²
é «ĺ
Ġ !
Ġ #
Ġ ?
Ġ am
Ġ el
Ġ id
Ġ ke
Ġ os
Ġ hi
Ġ ill
Ġ ĠĊ
Ġ em
Ġ ey
Ġ ama
Ġ art
Ġ ash
Ġ 80
Ġ ob
Ġ op
Ġ âĻĢ
Ġ ðŁĶĶ
Ġ anth
Ġ under
Ġ arch
Ġ ãĤ
Ġ veg
Ġ verified
Ġ Î©R
Ġ rim
Ġ other
Ġ !!!
Ġ ____
Ġ æĸĩ
Ġ $(
Ġ Qrow
Ġ ^_
Ġ ~/.
Ġ Â»
Ġ Åł
Ġ ÍŁÍī
Ģ é«ĺ
ģ ðŁĮ
Ĥ ðŁĳ
Ĥ âľ¿
ĥ ãĤ
ī ))
ĭ ķ
Į ðŁĶ
į Ģ
İ ĥ
ĵ ãģ
Ķ æ³ķ
ķ ç¨¿
ĺ ĤðŁĳ
Ļ Ħ
ļ Îķ
ľ :
Ń ¦
Ń ï¼¥
er a
er t
er en
er ate
er ia
er et
er ators
er ous
er ib
er Br
er ious
er pack
er rey
er tin
er wh
er una
in t
in er
in ar
in ed
in ec
in ion
in os
in ess
in ary
in der
in els
in ks
in bl
in ji
in ues
in rate
on ist
on ly
on qu
on head
an a
an i
an ks
an ace
an pak
or es
or as
or ig
or ch
or ed
or ic
or ill
or ry
or ale
or pl
or iun
es h
es is
es ed
es cu
es ervation
es ert
at i
at am
at ou
at it
at he
at ic
at her
ĠS D
ĠS P
ĠS R
ĠS V
ĠS o
ĠS en
ĠS as
ĠS ing
ĠS el
ĠS he
ĠS il
ĠS im
ĠS os
ĠS hi
ĠS amp
ĠS um
ĠS op
ĠS enn
ĠS ort
ĠS oc
ĠS Wa
ĠS IS
ĠS heever
ĠS BO
ĠS atch
ĠS ai
ĠS uper
ĠS witch
ĠS eattle
ĠS HE
ĠS elf
ĠS omb
ĠS ocialist
ĠS layer
ĠS TEAM
ĠS urgery
ĠS CMC
ĠS FO
ĠS LI
ĠS ucc
ĠS eren
ĠS orry
ĠT H
ĠT o
ĠT it
ĠT ur
ĠT ia
ĠT amp
ĠT urn
ĠT ant
ĠT um
ĠT ob
ĠT ud
ĠT ang
ĠT ext
ĠT HI
ĠT ov
ĠT rad
ĠT ru
ĠT HER
ĠT ank
ĠT ester
ĠT ennessee
ĠT OL
ĠT aylor
ĠT rades
ĠT emple
ĠT AKE
ĠT CU
ĠT aichi
ĠT ych
ĠT oriun
ar u
ar es
ar th
ar as
ar oo
ar ent
ar ly
ar ian
ar qu
ar ik
ar ka
ar row
ar ades
ar casm
ar xist
ĠC S
ĠC ou
ĠC it
ĠC ol
ĠC ot
ĠC le
ĠC he
ĠC oo
ĠC ast
ĠC ra
ĠC AT
ĠC ass
ĠC oll
ĠC HI
ĠC ors
ĠC TE
ĠC apt
ĠC urr
ĠC ath
ĠC ould
ĠC MP
ĠC ooper
ĠC SL
ĠC pt
ĠC ros
ĠC actuar
ĠC HAR
ĠC Ps
ĠC UBS
ĠC ucuy
ĠC onqu
am an
am el
am ed
am ic
am age
am ily
am asu
is a
is er
is on
is ex
is gu
is crap
is zcze
ĠB B
ĠB y
ĠB en
ĠB al
ĠB re
ĠB om
ĠB ay
ĠB est
ĠB urn
ĠB ob
ĠB OT
ĠB eat
ĠB ass
ĠB iz
ĠB ring
ĠB OD
ĠB ru
ĠB rick
ĠB apt
ĠB ox
ĠB eep
ĠB erm
ĠB rav
ĠB It
ĠB rid
ĠB RI
ĠB rian
ĠB leh
ĠB ody
ĠB ITT
ĠB ULL
ĠB ertin
ĠB inary
ĠB isex
en al
en st
en ia
en im
en ber
en rag
en ger
en cy
en wing
ers ex
ers haw
ll i
ll y
ll ia
ll enger
th et
th us
th ens
th ea
th rom
th ony
as ar
as ri
as us
as ons
as se
as Capt
ig on
ig ade
ĠA F
ĠA t
ĠA re
ĠA HL
ĠA SU
ĠA nd
ĠA AAAA
ĠA te
ĠA MA
ĠA ure
ĠA ND
ĠA gain
ĠA cc
ĠA dam
ĠA SE
ĠA SI
ĠA CT
ĠA FK
ĠA PP
ĠA cem
ĠA fter
ĠA uto
ĠA GL
ĠA MEL
ĠA NAR
ĠA UTOM
ĠA frica
ĠA kron
ĠA pologist
ĠA waiting
ĠA zmod
ĠA thens
ou p
ou q
ou ver
ĠG A
ĠG al
ĠG ri
ĠG ill
ĠG if
ĠG eorg
ĠG iv
ĠG MT
ĠG TO
ĠG rom
ĠG sy
ĠG ender
ĠG TE
ĠG oop
ĠG hz
ĠG ray
ĠG ives
ĠG ates
ĠG reen
ĠG rand
ĠG uild
ĠG allow
ĠG IVE
ĠG eForce
ĠG orill
it o
it ub
it ive
it ron
it ab
it ated
it Post
it nance
al d
al or
al ong
al co
al iz
al mer
al sh
al ones
al anc
ĠM O
ĠM Y
ĠM y
ĠM ur
ĠM et
ĠM and
ĠM ay
ĠM ight
ĠM um
ĠM ans
ĠM ain
ĠM ont
ĠM orn
ĠM art
ĠM ons
ĠM ost
ĠM ass
ĠM eg
ĠM ets
ĠM ary
ĠM MA
ĠM ov
ĠM AR
ĠM ale
ĠM ein
ĠM arch
ĠM ath
ĠM atch
ĠM arl
ĠM AY
ĠM asu
ĠM ason
ĠM SI
ĠM ound
ĠM iat
ĠM ISS
ĠM THFR
ĠM inec
ĠM arqu
ing ens
ing ford
ing aling
re l
re ll
re ck
re et
re ha
re em
re tt
re ese
re ps
re ci
re esed
ch o
ch os
ch own
ch ath
ch ology
ch luss
ol a
ol n
ol on
ol is
ol ed
ol ition
ol erate
ĠP A
ĠP B
ĠP E
ĠP M
ĠP O
ĠP S
ĠP T
ĠP ed
ĠP ur
ĠP la
ĠP il
ĠP ent
ĠP ant
ĠP op
ĠP ac
ĠP iz
ĠP sy
ĠP anth
ĠP atri
ĠP riz
ĠP ose
ĠP aul
ĠP rid
ĠP ills
ĠP PL
ĠP RI
ĠP yke
ĠP anic
ĠP LE
ĠP OM
ĠP olic
ĠP icker
ĠP epp
ĠP erib
ĠP anace
ĠP iszcze
el es
el st
el ess
el our
el ong
el se
el ix
el aide
ri e
ri or
ri ers
ri ll
ri ch
ri oles
ri me
om g
om en
om ent
om ment
om ise
om puter
om mand
om asse
ĠH as
ĠH ir
ĠH ill
ĠH ey
ĠH ina
ĠH ear
ĠH OT
ĠH ug
ĠH ell
ĠH ats
ĠH ipp
ĠH igh
ĠH YY
ĠH RT
ĠH emi
ĠH AIL
ĠH HKB
ot es
ot ed
ot ia
ĠSt u
ĠSt ing
ĠSt eam
ĠSt ats
ĠSt one
ĠSt rive
ĠSt yle
ĠSt orm
ĠSt ark
ĠSt arco
ĠSt eve
ĠSt arter
ĠSt reet
ĠR G
ĠR X
ĠR id
ĠR ad
ĠR oo
ĠR un
ĠR ay
ĠR ap
ĠR ug
ĠR ile
ĠR aw
ĠR ust
ĠR oll
ĠR uff
ĠR oot
ĠR ider
ĠR apt
ĠR AM
ĠR IP
ĠR yzen
ĠR AD
ĠR iot
ĠR uman
ĠR iver
ĠR ichi
ĠR PI
ĠR asm
ĠR ankt
ĠR AW
ĠR PGSt
ĠR hodes
ĠR iMG
ed a
ed om
ed sman
ed onist
ed oras
ed asCapt
id on
ad el
ad ian
ad ins
ad ster
ad mo
ur f
ur l
ur y
ur al
ur ch
ur ate
ur der
ur ang
ur man
ur viv
ur itron
ĠD D
ĠD M
ĠD o
ĠD an
ĠD ad
ĠD et
ĠD ist
ĠD if
ĠD em
ĠD ear
ĠD od
ĠD ap
ĠD ary
ĠD ick
ĠD own
ĠD ah
ĠD IP
ĠD ign
ĠD uty
ĠD iana
ĠD iamond
ĠD AY
ĠD ew
ĠD rif
ĠD omin
ĠD ark
ĠD arin
ĠD ogs
ĠD eputy
ĠD ave
ĠD rum
ĠD warf
ĠD irty
ĠD BV
ĠD epress
ĠD Ã¼ssel
ĠD atam
ĠD isgu
ĠD enim
ĠD ingaling
le e
le z
le an
le ers
le ber
le ase
le muffin
ĠF E
ĠF o
ĠF ro
ĠF em
ĠF od
ĠF all
ĠF ash
ĠF ue
ĠF ell
ĠF ort
ĠF ore
ĠF oot
ĠF ree
ĠF rans
ĠF ace
ĠF orm
ĠF OR
ĠF ail
ĠF iiii
ĠF DA
ĠF URNO
ĠF lash
ĠF ucks
ĠF inder
ĠF ather
ĠF alco
ĠF elix
ĠF urman
st ar
st ers
st ack
st aunch
st ems
la ct
la ce
ia ar
Ġb f
Ġb y
Ġb un
Ġb ir
Ġb ay
Ġb ast
Ġb orn
Ġb eat
Ġb ud
Ġb ron
Ġb ac
Ġb aby
Ġb ring
Ġb ah
Ġb oop
Ġb eep
Ġb ase
Ġb ada
Ġb ann
Ġb omb
Ġb rain
Ġb reak
Ġb eli
Ġb leh
Ġb alls
Ġb uys
Ġb alanc
Ġb elong
ow ney
ow job
ĠN L
ĠN o
ĠN on
ĠN ec
ĠN im
ĠN est
ĠN ash
ĠN ug
ĠN ab
ĠN ov
ĠN oth
ĠN ation
ĠN eur
ĠN HS
ĠN mom
ĠN sis
ĠN ingens
of it
Ġd as
Ġd el
Ġd ick
Ġd ep
Ġd eal
Ġd ead
Ġd ism
Ġd ude
Ġd eveloper
Ġd aught
Ġd irly
Ġd ime
Ġd rone
Ġd esert
Ġd amage
Ġd rill
he ed
he elst
oo se
et on
et im
et ric
et arian
un i
un ter
un fortunately
Ġth an
Ġth en
Ġth ing
Ġth ose
Ġth ank
Ġth rone
ĠI Q
ĠI V
ĠI X
ĠI t
ĠI ron
ĠI nt
ĠI mm
ĠI NC
ĠI WB
ĠI mpar
ĠI verson
ĠBu ff
ĠBu tl
ĠBu kka
and o
and al
and ist
and ard
and rom
and ids
ic e
ic ia
ic ian
ic ations
ic leers
il ang
il mm
il oDF
il ani
ĠL ion
ĠL if
ĠL ess
ĠL ear
ĠL ie
ĠL eat
ĠL ock
ĠL ine
ĠL ike
ĠL ov
ĠL evel
ĠL ose
ĠL ife
ĠL CP
ĠL ives
ĠL iqu
ĠL ondon
ĠL Ãºcio
ĠL unch
ĠL oad
ĠL atit
Ġw on
Ġw ar
Ġw ay
Ġw ee
Ġw ere
Ġw ild
Ġw ork
Ġw uff
Ġw itch
Ġw here
Ġw ake
Ġw ann
Ġw arf
Ġw inn
Ġw orst
Ġw alls
Ġw izard
Ġw inrate
Ġw reck
Ġw omen
ir m
ir o
ir ling
ir its
ir cut
ir rel
us er
us ers
us ion
us ens
us pic
Ġ( +
Ġ( âĹ¡
Ġs it
Ġs et
Ġs um
Ġs aw
Ġs ni
Ġs oon
Ġs hip
Ġs air
Ġs uper
Ġs witch
Ġs cul
Ġs eem
Ġs pe
Ġs weat
Ġs ound
Ġs ave
Ġs low
Ġs wear
Ġs ugar
Ġs eago
Ġs lut
Ġs pots
Ġs uic
Ġs yst
Ġs erious
Ġs arcasm
Ġs urviv
Ġs iaar
Ġs uspic
ist en
ist ry
ec ialist
ec ca
ec almer
ĠW et
ĠW ant
ĠW ash
ĠW ell
ĠW itt
ĠW atch
ĠW arm
ĠW isconsin
ĠW ok
ĠW haw
ĠW rang
ĠW heat
ĠW orst
ĠW ithout
ĠW izard
ĠW Ze
ĠW eird
ĠW his
ĠW ren
ĠW alsh
ĠW heelst
ex im
ex hale
ex master
ut back
Ġm r
Ġm am
Ġm it
Ġm ee
Ġm ys
Ġm ust
Ġm ore
Ġm ov
Ġm ake
Ġm ax
Ġm eta
Ġm orale
Ġm arxist
Ġm urder
ĠO C
ĠO D
ĠO S
ĠO f
ĠO h
ĠO le
ĠO ub
ĠO est
ĠO DD
ĠO bl
ĠO ffic
ĠO FW
ĠO bs
ĠO din
ĠO pie
ĠO riginal
ĠO slo
ĠO vch
ĠO rioles
ĠO utback
Ġf ar
Ġf ight
Ġf ud
Ġf uck
Ġf ull
Ġf oot
Ġf ru
Ġf ace
Ġf arm
Ġf air
Ġf ool
Ġf lu
Ġf reddiedyke
Ġf eel
Ġf ukin
Ġf ined
Ġf amily
Ġf edoras
Ġf ilmm
ha i
ĠY T
ĠY o
ĠY in
ĠY ear
ĠY ord
ĠY ug
ĠY ach
ĠY sel
ĠY ew
ĠY asu
Ġa f
Ġa in
Ġa gg
Ġa bout
Ġa fter
Ġa hh
Ġa way
Ġa gend
Ġa part
com a
com mer
tp icker
ĠK G
ĠK it
ĠK end
ĠK ild
ĠK ell
ĠK unk
ĠK ore
ĠK rat
ĠK ris
ĠK ansas
ĠK ING
ĠK ite
ĠK irst
ĠK ISS
ĠK arma
ĠK hu
ĠK uan
ĠK wame
ĠK ershaw
ĠK omputer
ĠE AT
ĠE ff
ĠE ile
ĠE pi
ĠE GM
ĠE cho
eam ish
im er
im it
im ate
im us
im ma
ev o
ev ille
ev oid
ev itab
ion ist
ion reps
Ġ1 2
Ġ1 9
Ġ1 00
Ġ1 17
Ġ1 80
Ġ1 200
Ġ1 10
Ġ1 700
Ġ1 48
Ġthe ir
og ram
og lu
ay a
ay hawks
est ed
est one
ke back
os per
os ef
os aur
os aki
os urgery
Ġt il
Ġt eam
Ġt ech
Ġt ext
Ġt ick
Ġt ea
Ġt read
Ġt ook
Ġt erm
Ġt witch
Ġt omb
Ġt rying
Ġt rum
Ġt ime
Ġt roll
Ġt emple
Ġt ip
Ġt rue
Ġt anks
Ġt arik
Ġt olerate
ag ot
ag ue
ag les
ag inar
ĠU CF
ĠU LT
ĠU NLV
ĠU gly
ĠU tama
ĠCar ney
ĠCar mel
hi e
hi ana
Ġ2 5
Ġ2 17
Ġ2 80
Ġ2 56
Ġ2 53
Ġ2 45
Ġ2 35
Ġ2 78
Ġ2 40
Ġ2 719
Ġ2 670
ent ina
ent ee
ent ak
ent ire
ent aur
ent ually
ent ures
ve pl
Ġc um
Ġc ere
Ġc olor
Ġc iv
Ġc ats
Ġc are
Ġc ens
Ġc anc
Ġc onf
Ġc ane
Ġc yb
Ġc ures
Ġc alled
Ġc atches
Ġc eim
Ġc olon
Ġc rime
Ġc lean
amp ion
ne ck
ne cks
ðŁ İĥ
ðŁ ĻĦ
Ġp re
Ġp ast
Ġp ost
Ġp aid
Ġp ron
Ġp ick
Ġp ied
Ġp oin
Ġp air
Ġp ray
Ġp ress
Ġp aper
Ġp atches
Ġp hil
Ġp iper
Ġp lz
Ġp resent
Ġp lease
Ġp lace
Ġh at
Ġh ate
Ġh ad
Ġh im
Ġh ood
Ġh yd
Ġh ater
Ġh ormon
Ġh edonist
Ġh unter
ill usion
ĠV R
ĠV all
ĠV ap
ĠV ictor
ĠV TC
ĠV ega
ĠV inyasa
ĠV oiv
ĠV eruna
ĠV alor
ĠV elour
ĠV entak
Ġg et
Ġg ay
Ġg if
Ġg ang
Ġg one
Ġg oon
Ġg reat
Ġg ender
Ġg onn
Ġg uy
Ġg reen
Ġg entle
Ġg host
Ġg litter
Ġg tfo
Ġg oose
ight on
ro ph
if a
if ies
if agot
ant i
ant oise
ant icleers
em y
em ent
em ber
17 45
Ġy e
Ġy r
Ġy u
Ġy es
Ġy et
Ġin ter
Ġin evitab
end o
end ar
end ent
Ne gat
Ne arly
Ne ural
um m
um etric
Ġn ut
Ġn ature
Ġn erwh
Ġn arrow
ast al
ast ic
ra el
ama zon
11 18
11 19
11 09
11 02
SU PER
Ġl an
Ġl ast
Ġl ess
Ġl ive
Ġl itt
Ġl ook
Ġl ogic
Ġl inks
Ġl isten
Ġl imit
dog wood
Ġ3 2
Ġ3 3
Ġ3 5
pr esent
ver t
ver ado
ver ting
ess el
ess ed
ess ary
ess Po
Ch ow
Ch ron
Ch ase
Ch else
Ch urch
Ch ampion
PS G
ear cher
ĠJ ose
ĠJ FK
ĠJ ames
ĠJ une
ĠJ aguars
ĠJ hild
ĠJ enrag
ĠJ ayhawks
ĠJ osef
ans that
ans chluss
ĠBuck et
CF OP
South ern
The Th
The oc
The Great
od ing
ak o
ak s
ak u
ak er
ain er
ct oid
Ġis su
16 93
16 44
16 08
bo y
bo ot
bo ard
ech o
ech oic
76 719
76 46
gg ets
art z
20 1
20 17
20 15
20 18
20 14
20 62
Ġ4 1
Ġ4 3
Ġ4 430
Ġ4 770
Ġ4 460
St eam
St op
St ock
St one
St even
St enh
St ealth
St andard
St irling
ap e
ap net
ap olis
ian ce
ian ique
ian ces
ian apolis
my sel
my port
my poodle
ce p
ce ives
ons o
ame fully
Ġon es
ĠUn ion
ĠUn der
ĠUn cle
ĠUn iversity
ĠUn fortunately
ĠUn lim
Th ird
Th ree
Th ink
US C
AT SE
IN ST
IN CT
IN TJ
ff ins
ff lemuffin
nd b
nd rom
net anschluss
op lif
ock ie
ts ug
ts man
ï¼ °ï¼²ï¼¥ï¼³ï¼¥ï¼®ï¼´
ï¼ ģðŁĮ
ĠCha vis
ĠFC S
15 21
15 42
ul ar
ul ous
Ġ5 2
Ġ5 3
Ġ5 4
Ġ5 6
Ġ5 7
Ġ5 21
Ġ5 430
Ġ5 000
Ġ5 820
Ġ6 0
Ġ6 4
Ġ6 7
Ġ6 8
Ġ6 600
ond s
ĠSp ain
ĠSp ud
ĠSp here
ĠSp inn
ĠSp eed
ĠSp itter
ĠSp inetic
ĠSp oil
ĠSp iro
ĠSp ecialist
ĠRed s
ĠRed dit
ĠRed raft
22 3
22 49
22 47
22 63
22 51
gin s
ith er
ter tain
ter ested
ug s
ug ame
ug by
âĻ ¥ï¸ı
ong er
ĠTh at
ĠTh ous
ĠTh ought
ĠTeam s
ard ing
ard ian
ever ything
18 1
18 480
ell ing
qu et
qu ire
se i
Ġ9 0
Ġ9 3
Ġ9 6
Ġ9 00
Ġ9 70
Ġ9 50
reg istry
Ġfor med
12 1
12 3
12 5
12 826
14 593
Cle ar
Cle oBest
ost rooper
âĹ Ļ
Ġre al
Ġre port
Ġre ward
Ġre lations
Ġre pet
Ġre asons
Ġre present
Ġre ceives
Ġre quire
ass cock
ĠAm p
ĠAm os
ĠAm bass
Al aska
Al tern
Al oha
Al so
Al eria
Al ola
av en
av ia
eg e
eg ant
eg ade
eg iance
ud a
ud ger
ud ios
ine z
ĠCh rist
ĠCh arl
ĠCh anticleers
ado Vladi
ets y
Ġ10 5
Ġ10 70
Ġnot e
19 11
19 93
19 97
50 70
50 93
93 2
93 14
93 30
93 90
93 84
GB A
Sp ain
Sp ace
Sp orts
Sp litt
Sp irits
Sp elling
Team Bok
Team Tir
ik aku
iv et
iv ist
iv ion
ort ality
ort fu
itt y
ĠDu kes
Ġbe en
Ġbe ers
Ġbe ing
Ġbe auty
Ġbe fore
03 2
03 61
co al
co ons
co oled
der on
ry Wa
Ġ8 8
Ġk id
Ġk ill
Ġk ids
Ġk ind
Ġk illing
Ġk omment
Ġk urang
Ġr am
Ġr ate
Ġr ight
Ġr age
Ġr pgha
Ġr eservation
Ġr ugby
ang e
ang hai
ĠThe m
ĠThe y
ĠThe ology
ĠMa jest
ĠMa itnance
ĠPr uss
ĠPr esident
ĠPr omise
ĠPr ofit
ĠRe al
ĠRe ign
ĠRe fer
ĠRe aper
ĠRe former
ĠRe pub
ĠRe imer
ions hip
Ġ20 19
200 0
200 8
44 60
44 64
44 424
44 616
ab eth
ab leB
oc co
per er
per ly
per ium
te h
ĠAs h
ĠAs ia
ĠAs ian
ĠAs sas
ĠEn clave
ĠEn VyUs
ĠEn gLit
ĠEn tertain
10 14
10 79
10 95
DR G
MT F
ick ing
man cer
Ġha ha
Ġha ircut
ens ifies
ect or
13 5
26 26
26 09
ep s
ep endent
ty Mat
Ġv ia
Ġv ale
Ġv oic
Ġv oted
Ġv entures
Ġv essel
Ġv ndb
Ġv ector
Ġhe art
Ġhe aling
ĠBla ise
Ar ist
Ar cMar
Ar isa
OU P
Pr ess
Pr oud
Pr otect
Pr ofess
Pr usa
Pr ogram
Pr osper
TO S
ac les
ire x
ire mont
ĠZ ona
ĠZ eal
ĠZ eta
ĠZ ips
ona ir
own ed
37 79
37 422
53 010
MA NS
Mar th
TR V
TR AL
TR OZ
Wa ifu
ber wol
hat es
hat tan
mon er
ov o
ov enia
ĠX B
ĠX T
ĠX LII
ĠX cali
Ġj ob
Ġj oy
Ġj oin
Ġj iu
Ġch amp
Ġch ase
Ġch eque
Ġch lam
Ġch arades
ĠWol fpack
Ġ16 20
76561198 18480
76561198 14593
76561198 2626
24 80
All ston
All TheTh
All egiance
En gland
En clave
En VyUs
KE T
Man ly
Man hattan
Mod el
ef irex
her ry
her necks
iz abeth
Ġla id
ĠSc otia
ĠCom p
ĠCom ets
ĠCom exim
Ġdon ator
Ġdon uts
ĠUS B
Ġcl oth
Ġcl ose
Ġcl icking
ĠVol vo
ĠChamp ionship
87 8
87 87
87 34
AL L
AL IGN
IS FP
No hrian
Sh ock
Sh elf
Sh inji
Sh itPost
Sh amefully
Sh oplif
Sh itty
Sh anghai
Un iversity
Un nec
War ring
War lord
War lock
War rior
ph y
ph one
ph ins
ring don
up id
van cem
âľ §*ãĢ
Ġas k
Ġas ian
ation al
ĠAn y
ĠAn thony
ĠAr ch
ĠAr ts
ĠAr row
ĠAr cher
ĠAr tist
ĠAll en
ĠAll iances
USA F
!! ?
52 17
52 80
52 32
69 69
90 54
AR TIS
Be the
Be ware
Be agles
Cat mand
DE N
DE SER
Jam o
Jam al
Pl at
Patri ck
Sc out
Sc ae
Sc orch
Sc ape
TE D
ah ad
act er
act ic
ru ctoid
sh op
sh ortfu
Ġ+ %
Ġ7 10
Ġ7 700
Ġst and
Ġst age
Ġst udios
Ġst upid
ink i
ĠPar lours
ĠPar amed
elb lot
ĠHun t
ĠHun tsman
let ec
Ġsh it
Ġsh ut
Ġsh ades
45 50
49 14
AM D
AN T
AP Y
AP PL
Gr ange
HER FU
IP EDE
Min i
Min ing
Min dl
Med ia
ND P
Rock et
__ _
hn is
ii iine
io Shelf
ix Global
ox x
yd ia
Ġor rust
ĠðŁ įĢ
ĠðŁ ĺĤðŁĳ
ane ers
ato GP
arch s
arch Ob
ĠBe er
ĠBe ing
ĠBe gins
ĠBr own
ĠBr igade
ĠMod erators
ĠPal pat
ĠPal adins
ĠHer c
ĠHer o
ĠHer der
ĠHer acles
ĠDev iant
Ġbl ess
Ġbl ob
Ġbl ame
Ġbl owjob
ĠEl i
Ġ30 93
Ġ30 24
Ġ30 61
ĠJo Jo
ĠJo ko
Ġhapp y
Ġhapp ens
Ġhapp iness
33 15
33 84
35 7
35 913
65 96
74 18
79 50
BO S
BO NAP
BO ATSE
Bull ish
DD evoid
Drag ons
Drag onair
Ex tin
IC K
IC KET
IC ANT
In fam
In stinct
In Rev
In vest
In terested
OL D
OL E
SC H
Sk ully
Sk yrim
Sam ey
West s
bl r
bl estone
bl onds
cc andids
cc aneers
for ming
ger Bot
ib rand
ib ald
ling ual
pir ing
sel or
ãĢ İ
ãĢ ı
Ġe h
Ġe ither
Ġe Sports
Ġen mes
Ġen vir
Ġne wbie
Ġqu otes
Ġqu artz
ĠâĢ ¢
ĠâĢ Ķ
erm int
ĠSh ockie
ĠTer riers
ĠBE G
ĠAT TAAAA
olut ely
ĠPro throm
ĠHel p
ĠLe ap
ĠLe Ã³n
ĠLe oric
ĠLe ilani
ĠLe ague
Ġwh irly
ĠEs s
Ġpro ject
Ġpro pag
Ġpro perly
Ġgo ing
Ġgo als
rac ies
rav ed
oooooooo o
765611982 360
765611982 76719
765611982 44616
06 21
06 27
28 70
28 44
68 97
84 3
99 03
AS Rock
AS PD
And roid
Bal asar
Bal efirex
Best Girl
Bro ck
Bro admo
Bro keback
Bron ze
Cl oak
Cl owney
CHI EF
EN gineer
EU W
HH H
Im aginar
Im perium
Ind ia
Ind ianapolis
KB JC
LL L
LL Y
Lu xray
On ly
On line
Or bit
Or tega
Red s
Red dit
Red nex
Sec ond
Sec ular
Ti p
To one
Tot ally
Tot ality
What z
YY YPE
You ng
ai jan
aul t
bad il
ble h
fi ber
fi eld
ji it
ky Dang
kin x
kin osaur
kin tsug
pl oding
ram i
ÌĹ Ì¼
ÌĹ ÌŁÍī
ãĤ ²æľ
ãĤ ĵãģ
Ġz one
Ġz anpak
Ġz aman
Ġany way
Ġany more
erb ury
erb aijan
ĠST ILL
ĠST UMP
ĠSe ager
ĠSe edsman
ĠSy stems
ĠSy ndrom
ĠSouth western
ĠSher i
arf s
ism atic
ĠAl un
ĠAl onso
ĠMc Bast
ĠMc Nasty
ĠMc Hot
ĠMc Poy
ĠMad die
ĠMad ison
ĠPl us
ĠPl oop
ĠPl atinum
ĠPl astic
ĠPower wall
omin ational
ĠDrag hic
ĠFr ancisco
ĠFr esh
off s
Ġdr ugs
Ġdr owned
ĠIn stinct
ĠLouis ville
Ġwr estling
Ġman is
Ġman ager
ĠEx it
ĠEx ozo
ðŁĮ Ł
Ġher oes
Ġint o
Ġint rins
Ġint enst
Ġint ensifies
Ġ40 8
Ġ40 12
oph ant
Alp es
ĠAspir in
765611980 92
765611980 728
765611980 978
765611980 35913
Ġhell o
âĢ¿ âĹ¡
Bulls eye
05 76
05 98
23 53
39 69
39 932
48 37
48 35
430 6
54 1
54 73
64 19
78 57
95 90
95 878
AB UFF
AC C
AC K
AC entaur
Aut archist
Act ive
BI G
BL ACK
Br ighton
Col ts
Cla iremont
Conf eder
Dis ney
Dis cord
Dis illusion
For mer
Fuck ing
Fuck omg
GW S
HU B
HU MANS
Lum ia
Lum inos
Lum aya
Leg it
Leg al
Leg acy
Mer idian
Mer fol
Mer cia
Mass ive
NI EDR
NZ L
Nin ja
Offic er
PC OS
Pol ice
Pro cess
Pro du
Play offs
Poke Scape
RI MA
Rav enwing
Real m
SB FCre
Sha pe
Sha fting
Sha chath
Sub aki
TC U
Trans M
Trans gender
Trans ylvania
Vy n
XX X
app le
eth ing
eth ics
fort y
ject ed
ject ivist
min archist
pt fo
ress ive
she art
tra uate
upp orter
Ġx D
Ġx boxgladiator
Ġle gal
Ġun d
Ġun til
Ġeat s
Ġeat en
Ġï¼ °ï¼²ï¼¥ï¼³ï¼¥ï¼®ï¼´
Ġï¼ ¤ï¼
Ġï¼ ´ï¼
Ġâľ «
Ġâľ Ī
Ġâľ ¿(
ĠQue en
ind ing
inn ati
ĠSw ans
ĠSw ord
ĠSw eet
ĠSha ft
ĠSub reddit
ĠSub aru
ĠSub lingual
ĠCan Iex
ĠCan aan
ĠCan adian
ĠCal ifornia
ĠCal endar
ĠCal deron
ĠCany on
ĠCiv ilization
ĠBi as
ĠGen esis
ition al
ĠMer ibald
ĠMag nolia
ĠMem es
ĠMem ber
ĠMem phis
ĠMak er
rim a
ĠHe aven
ĠHar ry
ĠRes ervation
ĠRes pect
ĠRes earcher
ĠDel ta
ĠDel iver
ĠFire bear
Ġdie hard
ĠId iot
ĠInd ependent
irst i
Ġsay ing
ĠKill er
ĠKill ed
ĠKill ian
ĠEv o
ĠEv il
ĠEv entually
ĠEag letec
Ġcre o
Ġcre ator
Ġcre ated
Ġcont act
Ġcont roll
Ġcont inues
ðŁĴ¯ ðŁĴ¯
Ġgirl s
umb um
Ġnoth in
Ġlong ness
press mysel
Charl eston
odes ian
odes hip
ATE D
âĻ¡ (
âĻ¡ âľ§*ãĢ
ĠAmer ica
ĠAmin u
Span B
ĠMax imus
ĠPrinc eton
ĠProtect ionist
ĠProfess ional
Ġhead cel
ðŁĶĶðŁĶĶ ðŁĶĶ
Mark arth
ĠAng eles
AAAAAAAAAAAAAAAA AAAAAAAAAAAAAAAA
Blood hound
Dragon Ninja
Ġneed s
raven ous
John ny
Lukas z
ðŁĲĬðŁĲĬ ðŁĲĬðŁĲĬ
Ġrob e
02 522
117 3
117 7
25 5
27 44424
29 4
315 2
315 3
40 12
424 9
66 6
826 3
853 1
853 4
An arco
An archOb
As piring
Az ura
Az erbaijan
Adam antoise
Abs entee
Abs olutely
Bu cks
Bu ccaneers
Big Ball
Buff Serv
Bring in
Bring Back
CH O
CK ING
Car amel
Cha llenger
Cha ostrooper
Chi leB
Chi vas
Conn or
Conn ecticut
Capt ain
Dar on
Dar rell
Dig ital
Dig ixGlobal
Dev on
Dem onhead
Dem olition
Dang erous
Does n
Em ile
Em press
FI U
FU LLY
Far ouq
Far ringdon
Fam ine
Fam ous
GS W
Great er
How land
Hun ter
Hun ta
Jul ia
Jul ianique
Kat rya
Kat hiana
LE TROZ
Lo ons
Lo ka
Look ing
Mc Dream
Mc Murr
Mr Dest
Mat tyMat
Mal den
Mal ravenous
Mand a
Mand elblot
NJ D
Night ly
Night cap
Ob viously
Ol ive
Ol ivet
Over eem
Over lord
Oct avia
PE KKA
PH YS
RL WC
Rh Ã´ne
Rh odesian
Ro ark
Ro adster
Ren egade
Ren ault
SG QDX
Sl udger
Sl ovenia
Ser is
Ser ath
Sen or
Sil ver
Sil kyDang
Squ all
Squ irrel
Super gu
Ten or
Ten ors
Tens ion
Tens hi
Val or
Val entina
cu xs
den ominational
fw ithout
fer red
fol io
gal actic
hv go
hv goo
iat ric
loo ks
lif echoic
line break
like af
pro ves
pro jected
tus ing
vir ate
wh en
xs herry
yb umbum
yo z
§å ¿ľ
Ì¥ Ìĺ
Ñģ Ñģ
å¥³ ãĤ²æľ
ï½¡ )
ï½¡ âĹķâĢ¿âĹķ
Ġu BPD
ĠÃ ¥re
ĠÃ §Ä±
Ġal one
Ġal ways
Ġex cell
Ġex ploding
Ġim t
Ġim proves
Ġanim e
Ġanim ations
ĠSm ol
ĠSm ith
ĠSch oles
ĠSch ool
ĠSec ret
ĠSec uritron
ĠSent ra
ĠSent inels
ĠSqu are
ĠSqu ier
ĠSea board
ĠSnack bar
ĠCA PS
ĠCR ICKET
ĠCl ub
ĠCl oud
ĠCo astal
ĠCate us
ĠCate gor
ĠCru zes
ĠCru iser
ĠConn ecticut
ĠConn oiss
ĠBack pack
ĠBron cos
ĠBron chos
ĠBea u
ĠBea ch
ĠAd elaide
ĠAd vancem
oun s
ĠGl ove
ĠGl asscock
ĠGo al
ĠGem thus
ĠGem ilang
ĠMon ster
ĠMon archs
ĠMus hro
ĠMus ician
ĠPri ce
ĠPri vate
ĠPast rami
ĠPlay ed
ĠPlay off
ĠPerson al
ĠPittsburg h
eld reem
ĠHard in
ĠHard en
ĠHuman ist
ĠRuss ia
ĠRuss ian
ĠDon or
ĠDav id
ĠDav ichi
ĠFor ester
ĠFor ward
Ġbo i
Ġbo ots
ĠNC AA
head s
heart beat
ĠBut ton
ĠLv l
ĠLea f
ĠLead er
Ġsc ores
Ġsc arfs
Ġsex ual
Ġsha ll
Ġsha ve
Ġsub reddit
Ġsuck ing
ĠWar riors
ĠWard ens
ĠWater loo
ĠWater cooled
Ġmem e
Ġmem es
Ġmonth s
Ġfr og
Ġfr ancisco
Ġfan boy
Ġapp s
Ġapp arent
ĠKe ikaku
ĠKe irsti
ĠEU W
ĠENER GY
ĠENER GI
Ġ15 00
Ġ144 0
ogic al
Ġ200 1
Ġ200 8
Ġcould n
ðŁį º
ðŁį į
ðŁĳ ģ
Ġper cent
Ġper vert
Ġhug e
Ġgr oup
Ġgr inding
ĠGame Dev
Ġ42 70
ĠThunder fuck
udd igon
ĠChar acter
ĠChar ismatic
198 1
198 5
ĠMac Duff
ĠEngineer ing
Ars enal
Art est
Art EE
Ġjack in
Ġjack ass
Ġlaug h
Ġlaug hing
ĠCommun ity
ĠCommun ications
ĠUSA F
âľ¿ )
ĠðŁĴ į
ĠðŁĴ ľ:
ĠBright side
ĠBright water
ĠJohn son
oooooooooooooooo ooooooooo
Doctor Fa
Lyn n
Secret ly
ĠInter netanschluss
ĠInter galactic
Nint endon
Nint endo
ĠMagic Force
Apost ol
Apost ate
Europe an
Friend ly
Friend Cod
æķĻ å¤§å
æķĻ è¡ĵ
ĠCult ure
087 1
216 5
293 3
244 1
237 5
36 37
319 6
344 7
388 3
493 6
409 8
512 9
557 1
679 9
865 92
953 1
945 7
:^ )
;âĹ ī))
?? !!?
AK KE
Am ber
Av aÃ
App reci
Abo ve
Aud ioShelf
AMA zl
Amer ica
Ant ifa
Acc urate
Bi omasse
Ban quet
Bre xit
Bad lifechoic
Bof o
Burn t
Bear ableB
Bug eye
Bang sa
Bunk yo
Brad y
Boy z
Burg er
Breat hing
Bris bane
Bank vie
BVE oOq
Butt Budd
Ci rie
Cer amic
Con verting
Cor ey
Cam iloDF
Cas ual
Cir cle
Cut est
Cant erbury
Cast ile
Cak es
Cob blestone
Cond itional
Clay ton
Cinc innati
Curr ent
Casu a
Cobal t
Coun selor
Craf ty
CENT IPEDE
De cker
Dr uddigon
Du ke
Dv ua
Dou ble
Dol phins
Del thea
Dur andal
Dra kor
Dod gers
Dlor in
DOT ABUFF
Down vot
Donn el
DVer itas
Domin ique
Deem Sle
Destroy er
Disting uish
DCent s
ES SRY
EV ER
Ec on
El izabeth
Ev E
Ear nhard
Egg y
Eff ie
Eston ia
END ER
Err orpl
Etern al
Fr ance
Fu els
Fin land
Fre edom
Fel icia
Fir coal
Fut ure
Fort una
Fern ando
Fore ign
Femin ist
Fau x
Fluff ybumbum
GR OUP
Gu ard
Ger man
Gin o
Gal actus
Gap orig
Gry mlo
Gab ite
Gird les
Gup e
GATI TOS
Gentle man
Ho arding
Hat kid
Ham lin
Hum or
Horn ets
Hob by
Hels inki
Heal er
High ly
Herb aliz
Human oid
Happ y
Hier ophant
IM ATE
IU I
IV ATE
Ir van
Is rael
Ire land
Int ersex
Jer emy
Jar rett
Jay mes
Jess ica
Jall oon
Jaz z
JAS ON
Ken sei
Kas per
Kur osaki
Kir ito
Kha jiit
Kay la
Kont ext
KOT H
Kik keli
Kah ne
Kapp a
Le ica
Lin ears
Les bian
Lis y
Len in
Las low
Lim burg
Lag rima
LIN E
Lots a
LDR EN
Lea ve
Linc oln
Lind e
Lunat ic
LOVE LY
MR P
Mor occo
Mot oG
Mad am
Mex ico
Mog i
May be
Mem phis
Mont errey
Mart in
Map le
MOT HERFU
Mach ine
Maj or
Maki BestGirl
Maint ainer
Nu ggets
Ny x
Nor my
Nex us
Nob ody
Nons upporter
Nov a
NEU TRAL
Nomin eret
NNI D
Norm al
Nude Wars
Od ger
Outs ider
Per forming
Pan Äį
Pre ferred
Pot atoGP
Ple b
Pand a
Pir ate
Pist ons
Pant su
Pul se
Pard oFC
Peg asus
Pine apple
Pire lli
POL YCH
Pach uca
Pyth on
Pittsburg h
QU ICK
RU THL
Re boot
Rom an
Ros eville
Rash ford
Rond ooooooooooooooooooooooooo
Raw r
Rik sv
Ripp a
Roy al
Read y
Reb ecca
RIP TPP
Raff le
ROVE D
ROBOT HUMANS
SW UN
Sm urf
So ares
Sy FPS
Sin on
Som etim
Sur rey
Sla p
Shi ban
Sant os
Sak ura
Sort aPog
SMA NA
Sea hawks
Serb ia
SHU RIMA
Somer ville
SKY LINE
Tw inbl
Tid us
Tur tle
Tim berwol
Tee th
Trib une
Trad er
TAH Z
Tru ly
Trium virate
UOT ZE
Ult imate
Usel essPo
UCL A
UNI TED
UPH OLD
Vl adoVladi
Vx AMAzl
Vol umetric
Vir tus
Vill age
Vap exhale
VIL EGE
Vanc ouver
Wr estling
Wen gl
Wra ith
Wall ingford
Week ly
WRL D
Xand er
XBO X
Yama ha
YSE Y
Zir ael
Zary a
ZOO KA
_(âĹķâĢ¿âĹķ )âĻ¡
aes thet
aver age
bil itated
bir kinx
bub baj
build ers
car py
cour se
crust y
craf ts
dan bam
dor f
dont doodle
daz ed
dank fiber
drif ting
ek tive
fel iz
fina lly
fluff y
gen ecalmer
got ta
gun s
grad uate
geb acks
gamm ut
hw an
hor se
hand crafts
iha vepl
iBeat Cakes
kÄ± yoz
lol ifagot
light erpack
lik es
miss ing
mik ke
mins hwan
nin jas
name iscrap
nong ender
nigh hh
oCar Soares
pus sy
pos es
pend ulous
pcpar tpicker
rutch i
som ething
sof t
sob exmaster
squ eamish
sav ed
spic y
swarf arm
spin eless
tim ore
tiny url
tankt op
trig ger
vod ka
vris ka
wish list
xSonn y
your nameiscrap
¡ï¼ ¹
¢ãĥ ¬ãĥ
¥æľ ¬èªŀ
©ï¼ Ńï¼¥
ªå ĭķ
®å¥³ å£«
²Ð°Ð ½
´Ð°Ð ²Ð°Ð½
¸Ð ¹
»Ð ´Ð°Ð²Ð°Ð½
Ìľ Ì¼
Ìł ÌĹÌŁÍī
Ì´Ì ĸ
Ì¹Ì¼ Íī
ÍĶ ÌłÌĹÌŁÍī
ÍŀÌĹ ÌľÌ¼
ÎĶ ÏĨ
Î¤Î ļÎķ
Ðľ Ð¾Ð
Ðł Ñĥ
ÐºÐ ¸Ð¹
âĨ Ĳ
âĶ Ĥ
âķ ĳ
âĿ ¤
ä¸Ń æĸĩ
ä½Ľ æķĻè¡ĵ
ä¿ºãģ ®å¥³å£«
å°ĳ å¥³ãĤ²æľ
æĬ ķç¨¿
æı ´
æĹ ¥æľ¬èªŀ
èĩ ªåĭķ
éŃ Ķæ³ķ
é£² ãĤĵãģ
Ġel egant
Ġke eps
Ġos ugame
Ġhi ves
Ġill ogical
Ġey ecel
Ġama b
Ġart ist
Ġob j
Ġop inion
Ġanth ony
Ġunder wear
Ġarch ie
ĠãĤ ¢ãĥ¬ãĥ
Ġveg etarian
Ġ____ ___
Ġæĸĩ æķĻå¤§å
Ġ^_ ^
ĠÅł k
ĠÍŁÍī ÍĶÌłÌĹÌŁÍī
ĥãĤ µ
ĮðŁĶ ¥ðŁĴ¯
erBr and
atou ch
athe ist
ĠSen ator
ĠSas ha
ĠSing le
ĠSel ect
ĠShe a
ĠSil verado
ĠSim ple
ĠSos hi
ĠShi ll
ĠSamp les
ĠSum mer
ĠSop hie
ĠSenn a
ĠSort za
ĠSoc cer
ĠSWa ist
ĠSIS TAHZ
ĠSBO G
ĠSatch el
ĠSwitch es
ĠSHE EVER
ĠSomb ra
ĠSeren e
ĠTit an
ĠTur ret
ĠTia go
ĠTamp on
ĠTurn er
ĠTant rrick
ĠTum blr
ĠTob ias
ĠTud or
ĠTang leber
ĠTHI S
ĠTov aras
ĠTrad e
ĠTru th
ĠTHER APY
ĠTych e
ĠCou lee
ĠCit adel
ĠCol ts
ĠCot ton
ĠCle mson
ĠChe f
ĠCoo kies
ĠCast le
ĠCra ck
ĠCass ie
ĠColl ege
ĠCHI LDREN
ĠCors air
ĠCapt ain
ĠCurr ency
ĠCath olic
ĠCros sheart
ĠCHAR ZOOKA
ĠConqu ers
ĠBen fica
ĠBal timore
ĠBre ton
ĠBom badil
ĠBay ou
ĠBurn star
ĠBob cats
ĠBiz aroo
ĠBru ins
ĠBrick mason
ĠBapt ist
ĠBox ing
ĠBerm uda
ĠBrav es
ĠBIt ch
ĠBrid es
ĠBRI DE
ĠBITT Y
ĠBisex ual
enber g
asri eldreem
ĠASU S
ĠAAAAA ND
ĠAure llia
ĠAcc ount
ĠASE L
ĠASI A
ĠACT IVATE
ĠAPP ROVED
ĠAcem oglu
ĠAuto Mod
ĠANAR CHO
ĠAUTOM ATED
ĠAzmod an
ĠGal ahad
ĠGri ffins
ĠGill ibrand
ĠGif s
ĠGeorg e
ĠGiv en
ĠGTO mega
ĠGsy nc
ĠGoop ed
ĠGallow s
ĠGorill as
itub er
ĠMur phy
ĠMet roid
ĠMand em
ĠMight y
ĠMans field
ĠMont e
ĠMorn ing
ĠMart inez
ĠMons on
ĠMass age
ĠMary land
ĠMov ing
ĠMAR IO
ĠMarch ing
ĠMarl ins
ĠMasu ria
ĠMound builders
ĠMiat a
ĠMinec raft
ĠMarqu ette
reha bilitated
reesed an
ĠPed iatric
ĠPur poses
ĠPla in
ĠPil ots
ĠPent ax
ĠPant alones
ĠPac era
ĠPiz za
ĠPsy chology
ĠPanth er
ĠPatri ots
ĠPriz e
ĠPose idon
ĠPrid e
ĠPRI VILEGE
ĠPLE B
ĠPOM O
ĠPolic e
ĠPepp ermint
ĠPerib adi
ĠPanace a
ĠPiszcze k
ommand o
ĠHir ako
ĠHina ko
ĠHug oCarSoares
ĠHell fire
ĠHipp ie
ĠHYY YYYPE
ĠStone heart
ĠRid gebacks
ĠRoo sters
ĠRap ids
ĠRug er
ĠRile y
ĠRaw rr
ĠRuff neck
ĠRoot ed
ĠRapt or
ĠRAD IO
ĠRuman ia
ĠRiver a
ĠRasm us
ĠRAW R
ĠRPGSt uck
ĠRhodes ia
edasCapt or
ĠDet ektive
ĠDist illing
ĠDif o
ĠDem on
ĠDod gerBot
ĠDap hnis
ĠDary n
ĠDah lin
ĠDign itas
ĠDiamond backs
ĠDrif ter
ĠDomin ion
ĠDepress ing
ĠDÃ¼ssel dorf
ĠDatam iner
ĠDisgu ise
ĠFro st
ĠFem ale
ĠFod der
ĠFall en
ĠFash ionreps
ĠFue go
ĠFell er
ĠFort ress
ĠFoot ball
ĠFrans ico
ĠFail ure
ĠFiiii iiiine
lact o
Ġbun ny
Ġbir b
Ġbay nes
Ġbast ard
Ġbeat er
Ġbron ze
Ġbac on
Ġbah coons
Ġbann ers
Ġbreak fast
Ġbeli eve
Ġbalanc ed
ĠNec roph
ĠNim as
ĠNug u
ĠNab oo
ĠNov atouch
ĠNoth ing
ĠNation als
ĠNeur osurgery
Ġdick heads
Ġdep raved
Ġdeal ing
Ġdism ember
Ġdaught er
ĠInt uition
ĠImm ortality
ĠINC I
ĠImpar ed
ĠBuff s
ĠButl er
ĠBukka ke
androm edasCaptor
ĠLion fish
ĠLif tDual
ĠLear ning
ĠLie ge
ĠLeat hernecks
ĠLock heed
ĠLine age
ĠLov ely
ĠLiqu id
ĠLoad cell
ĠLatit ude
Ġwee ks
Ġwitch y
Ġwann a
Ġwarf owl
Ġwinn er
usens ButtBudd
Ġ(âĹ¡ âĢ¿âĹ¡
Ġsum moner
Ġsni pe
Ġscul pt
Ġseem ed
Ġspe aks
Ġsweat in
Ġseago ing
Ġsuic el
Ġsyst em
Ġsurviv al
Ġsuspic iously
ĠWash U
ĠWitt enberg
ĠWarm ia
ĠWok en
ĠWhaw ha
ĠWrang ler
ĠWheat on
ĠWZe P
ĠWhis perer
ĠWren ch
ĠWheelst and
Ġmys elf
Ġmov ie
Ġmeta ethics
ĠOub re
ĠOest e
ĠODD YSEY
ĠObl ivion
ĠOffic er
ĠObs essed
ĠOvch arka
Ġfud ge
Ġfru its
Ġfool ed
Ġflu ent
Ġfilmm aker
ĠYord le
ĠYug ituber
ĠYach t
ĠYasu o
Ġagg ressive
Ġagend a
commer cial
ĠKend rick
ĠKild a
ĠKell y
ĠKunk ka
ĠKore an
ĠKrat z
ĠKING DOM
ĠKirst en
ĠKhu on
ĠEff ect
ĠEile en
ĠEpi phone
Ġ117 7
Ġ148 3
Ġtick ling
Ġtea cher
Ġterm inal
Ġtrum p
ĠULT IMATE
ĠCarmel o
Ġ217 9
Ġ235 1
entire ly
Ġcum ia
Ġcere al
Ġcolor ful
Ġciv ilization
Ġcens ored
Ġcanc er
Ġconf irm
Ġcyb org
Ġpost er
Ġpron ouns
Ġpoin ty
Ġpray ers
Ġhood yh
Ġhyd rant
Ġhormon es
Ġhedonist ic
ĠVall on
ĠVap cap
ĠVictor ium
ĠVoiv odeship
Ġgang ster
Ġgonn a
Ġinter course
Ġinevitab le
Negat iver
Ġnerwh oo
1118 49
1119 1
Ġlitt le
dogwood handcrafts
Chron o
Chelse a
ĠJenrag ement
ansthat day
Theoc racies
Ġissu es
Stock holm
Stone foot
Stenh ouse
myport folio
ĠUnder graduate
ĠUnlim ited
Think ing
INST INCT
ï¼ģðŁĮ ´
ĠSpud mancer
ĠSpinn ers
ĠSpoil ing
ĠReddit ors
ĠThous and
ĠThought s
CleoBest Waifu
Ġreport ing
Ġrepet itive
Ġrequire d
ĠAmbass ador
Altern ative
ĠChrist mas
ĠCharl eston
Splitt a
TeamBok usensButtBudd
TeamTir amasu
ryWa fflemuffin
Ġkomment ar
Ġrpgha x
ĠMajest y
ĠPruss ia
ĠReign s
ĠRefer ral
ĠRepub lic
ĠAssas in
ĠEntertain ment
1079 18
Ġvoic ecel
ArcMar Cactuar
Profess ional
Prosper ity
ĠZeal and
37422 71
53010 9
ĠXcali ber
Ġjoin ery
Ġchlam ydia
7656119818480 5093
7656119814593 1608
765611982626 02522
AllTheTh ings
Ġcloth es
ALIGN MENT
ShitPost er
Shoplif ter
Unnec essary
Warring ah
ARTIS M
Catmand er
DESER T
Scae TheGreat
shortfu zd
ĠParamed ic
APPL ICANT
Mindl ess
Ġorrust u
ĠðŁĺĤðŁĳ ĮðŁĶ¥ðŁĴ¯
ĠPalpat ine
ĠDeviant Artest
Ġblowjob s
BONAP ARTISM
BOATSE XXX
Extin ction
Infam ous
Invest or
Ġenmes hment
Ġenvir oment
ĠATTAAAA CK
ĠProthrom bin
Ġpropag andist
765611982360 95878
76561198276719 212
76561198244616 900
Broadmo or
Cloak ed
CHIEF SMANA
ENgineer TP
Imaginar ium
Imperium Imaginarium
kinosaur us
kintsug i
ÌĹÌ¼ Ì¹Ì¼Íī
Ġzanpak uto
ĠSyndrom e
ĠMcBast ard
ĠMcHot tie
ĠMcPoy le
ĠDraghic escu
ĠExozo ologist
Ġintrins ic
Ġintenst ified
76561198092 530109
765611980728 11191
765611980978 39932
76561198035913 210
Confeder acy
Disillusion ed
Luminos ity
Merfol k
NIEDR IGE
Produ ction
SBFCre cs
Ġï¼¤ï¼ ¡ï¼¹
Ġï¼´ï¼ ©ï¼Ńï¼¥
ĠCanIex pressmysel
ĠFirebear d
Ġcontroll er
âĻ¡âľ§*ãĢ Ĥâľ¿
AAAAAAAAAAAAAAAAAAAAAAAAAAAAAAAA HHH
Anarco ShitPoster
AnarchOb jectivist
BigBall erBrand
BuffServ ers
BringBack Girdles
ChileB oys
Demonhead ge
Dangerous ly
LETROZ OLE
McDream y
McMurr ay
MrDest ructoid
MattyMat t
SGQDX UOTZE
Sludger z
SilkyDang lez
Supergu ardian
cuxs layer
fwithout flair
likeaf oxx
§å¿ľ æı´
Ì¥Ìĺ ÌŀÌĹ
ÑģÑģ ÐºÐ¸Ð¹
ï½¡âĹķâĢ¿âĹķ ï½¡)
ĠÃ¥re ts
ĠÃ§Ä± kÄ±yoz
Ġexcell ent
ĠCategor ies
ĠConnoiss eur
ĠAdvancem ent
ĠGemthus iast
ĠMushro om
heartbeat s
Ġapparent ly
ĠENERGI E
ArtEE zy
DoctorFa ust
FriendCod e
;âĹī)) )&
AvaÃ Ń
Appreci ated
Badlifechoic es
BearableB og
Bankvie w
BVEoOq A
CamiloDF M
Downvot e
DeemSle ep
Distinguish ed
ESSRY AN
Earnhard t
Errorpl anes
Gaporig o
Grymlo q
Herbaliz er
MOTHERFU CKING
PanÄį evo
PotatoGP U
POLYCH AD
RUTHL ESSRYAN
Riksv apnet
Sometim es
Shiban ator
Twinbl ast
Timberwol ves
Wengl onger
aesthet ics
bubbaj ack
dontdoodle mypoodle
ihavepl ansthatday
ÎĶÏĨ Î¨
ÐľÐ¾Ð »Ð´Ð°Ð²Ð°Ð½
ÐłÑĥ ÑģÑģÐºÐ¸Ð¹
ä½ĽæķĻè¡ĵ èªŀ
å°ĳå¥³ãĤ²æľ Ģé«ĺ
èĩªåĭķ æĬķç¨¿
éŃĶæ³ķ å°ĳå¥³ãĤ²æľĢé«ĺ
é£²ãĤĵãģ §å¿ľæı´
Ġopinion ated
ĠãĤ¢ãĥ¬ãĥ ĥãĤµ
ĠæĸĩæķĻå¤§å Ń¦
ĠÍŁÍīÍĶÌłÌĹÌŁÍī Ì¥
ĠTangleber ryWafflemuffin
asrieldreem urr
ĠNecroph ilia
Ġdismember ed
Ġ(âĹ¡âĢ¿âĹ¡ âľ¿)
TeamBokusensButtBudd ies
ĠCanIexpressmysel fwithoutflair
