{"<s>":0,"<pad>":1,"</s>":2,"<unk>":3,"<mask>":4,"!":5,"\"":6,"#":7,"$":8,"%":9,"&":10,"'":11,"(":12,")":13,"*":14,"+":15,",":16,"-":17,".":18,"/":19,"0":20,"1":21,"2":22,"3":23,"4":24,"5":25,"6":26,"7":27,"8":28,"9":29,":":30,";":31,"<":32,"=":33,">":34,"?":35,"@":36,"A":37,"B":38,"C":39,"D":40,"E":41,"F":42,"G":43,"H":44,"I":45,"J":46,"K":47,"L":48,"M":49,"N":50,"O":51,"P":52,"Q":53,"R":54,"S":55,"T":56,"U":57,"V":58,"W":59,"X":60,"Y":61,"Z":62,"[":63,"\\":64,"]":65,"^":66,"_":67,"`":68,"a":69,"b":70,"c":71,"d":72,"e":73,"f":74,"g":75,"h":76,"i":77,"j":78,"k":79,"l":80,"m":81,"n":82,"o":83,"p":84,"q":85,"r":86,"s":87,"t":88,"u":89,"v":90,"w":91,"x":92,"y":93,"z":94,"{":95,"|":96,"}":97,"~":98,"¡":99,"¢":100,"£":101,"¤":102,"¥":103,"¦":104,"§":105,"¨":106,"©":107,"ª":108,"«":109,"¬":110,"®":111,"¯":112,"°":113,"±":114,"²":115,"³":116,"´":117,"µ":118,"¶":119,"·":120,"¸":121,"¹":122,"º":123,"»":124,"¼":125,"½":126,"¾":127,"¿":128,"À":129,"Á":130,"Â":131,"Ã":132,"Ä":133,"Å":134,"Æ":135,"Ç":136,"È":137,"É":138,"Ê":139,"Ë":140,"Ì":141,"Í":142,"Î":143,"Ï":144,"Ð":145,"Ñ":146,"Ò":147,"Ó":148,"Ô":149,"Õ":150,"Ö":151,"×":152,"Ø":153,"Ù":154,"Ú":155,"Û":156,"Ü":157,"Ý":158,"Þ":159,"ß":160,"à":161,"á":162,"â":163,"ã":164,"ä":165,"å":166,"æ":167,"ç":168,"è":169,"é":170,"ê":171,"ë":172,"ì":173,"í":174,"î":175,"ï":176,"ð":177,"ñ":178,"ò":179,"ó":180,"ô":181,"õ":182,"ö":183,"÷":184,"ø":185,"ù":186,"ú":187,"û":188,"ü":189,"ý":190,"þ":191,"ÿ":192,"Ā":193,"ā":194,"Ă":195,"ă":196,"Ą":197,"ą":198,"Ć":199,"ć":200,"Ĉ":201,"ĉ":202,"Ċ":203,"ċ":204,"Č":205,"č":206,"Ď":207,"ď":208,"Đ":209,"đ":210,"Ē":211,"ē":212,"Ĕ":213,"ĕ":214,"Ė":215,"ė":216,"Ę":217,"ę":218,"Ě":219,"ě":220,"Ĝ":221,"ĝ":222,"Ğ":223,"ğ":224,"Ġ":225,"ġ":226,"Ģ":227,"ģ":228,"Ĥ":229,"ĥ":230,"Ħ":231,"ħ":232,"Ĩ":233,"ĩ":234,"Ī":235,"ī":236,"Ĭ":237,"ĭ":238,"Į":239,"į":240,"İ":241,"ı":242,"Ĳ":243,"ĳ":244,"Ĵ":245,"ĵ":246,"Ķ":247,"ķ":248,"ĸ":249,"Ĺ":250,"ĺ":251,"Ļ":252,"ļ":253,"Ľ":254,"ľ":255,"Ŀ":256,"ŀ":257,"Ł":258,"ł":259,"Ń":260,"er":261,"in":262,"on":263,"an":264,"or":265,"es":266,"at":267,"ĠS":268,"ĠT":269,"ar":270,"ĠC":271,"am":272,"Ġ/":273,"is":274,"ĠB":275,"en":276,"ers":277,"ll":278,"th":279,"ck":280,"as":281,"ig":282,"ĠA":283,"ou":284,"ĠG":285,"it":286,"al":287,"ĠM":288,"ing":289,"re":290,"ch":291,"ol":292,"ĠP":293,"el":294,"ri":295,"ate":296,"om":297,"ĠH":298,"ot":299,"ĠSt":300,"ĠR":301,"ed":302,"id":303,"ad":304,"ur":305,"ĠD":306,"ht":307,"le":308,"ĠF":309,"ĠState":310,"st":311,"la":312,"Ġ-":313,"ia":314,"Ġb":315,"ĠTig":316,"ĠTigers":317,"ow":318,"ĠN":319,"of":320,"Ġd":321,"he":322,"oo":323,"et":324,"un":325,"Ġ|":326,"Ġth":327,"ĠI":328,"ĠBu":329,"and":330,"ic":331,"il":332,"ĠL":333,"Ġw":334,"ir":335,"us":336,"Ġ(":337,"Ġs":338,"ist":339,"cks":340,"ec":341,"ĠW":342,"ex":343,"ut":344,"Ġm":345,"ĠO":346,"Ġf":347,"ha":348,"ĠY":349,"ub":350,"Ġa":351,"com":352,"tp":353,"ĠK":354,"//":355,"://":356,"http":357,"ĠE":358,"eam":359,"im":360,"ies":361,"ev":362,"ion":363,"Ġ1":364,"Ġthe":365,"00":366,"og":367,"ay":368,"Ġof":369,"est":370,"ke":371,"os":372,"Ġt":373,"ag":374,"ĠU":375,"ĠCar":376,"hi":377,"Ġ2":378,"ms":379,"ent":380,"ve":381,"Ġc":382,"AA":383,"HL":384,"amp":385,"ne":386,"ðŁ":387,"Ġp":388,"mson":389,"Ġh":390,"ill":391,"ĠV":392,"Ġg":393,"ight":394,"ĠGam":395,"ĠBull":396,"ro":397,"ĠĊ":398,"urn":399,"if":400,"ant":401,"em":402,"17":403,"Ġy":404,"Ġin":405,"end":406,"ĠNHL":407,"exas":408,"uburn":409,"Ne":410,"ey":411,"ina":412,"https":413,"Auburn":414,"um":415,"Ġn":416,"ast":417,"ee":418,"ra":419,"ama":420,"ity":421,"11":422,"SU":423,"Ġl":424,"outh":425,"olina":426,"ĠCarolina":427,"dog":428,"ich":429,"Ġ3":430,"ide":431,"ocks":432,"pr":433,"ver":434,"ess":435,"ecocks":436,"ĠGamecocks":437,"Ch":438,"PS":439,"bama":440,"ear":441,"ĠJ":442,"ans":443,"labama":444,"ĠBuck":445,"CF":446,"South":447,"The":448,"od":449,"pp":450,"ere":451,"ator":452,"ie":453,"org":454,"our":455,"hio":456,"ĠBulldog":457,"New":458,"ĠBulldogs":459,"LSU":460,"ak":461,"ain":462,"ct":463,"ly":464,"Ġis":465,"Ġand":466,"anim":467,"ĠTide":468,"ĠCri":469,"eyes":470,"ĠBuckeyes":471,"ĠCrimson":472,"16":473,"all":474,"ack":475,"bo":476,"ech":477,"ont":478,"'s":479,"76":480,"Alabama":481,"Ohio":482,"gg":483,"lor":484,"orn":485,"art":486,"ish":487,"elist":488,"animelist":489,"20":490,"eorg":491,"Ġ4":492,"ash":493,"prof":494,"80":495,"St":496,"ap":497,"ian":498,"my":499,"ob":500,"eorgia":501,"OT":502,"Texas":503,"ce":504,"kies":505,"mun":506,"ons":507,"ame":508,"Ġ||":509,"eat":510,"Ġon":511,"ĠTech":512,"iss":513,"ĠUn":514,"Th":515,"US":516,"ue":517,"commun":518,"AT":519,"IN":520,"ff":521,"land":522,"nd":523,"net":524,"op":525,"ock":526,"ts":527,"ton":528,"ï¼":529,"ord":530,"ĠCha":531,"enn":532,"ĠFC":533,"ood":534,"ild":535,"Ġyou":536,"15":537,"night":538,"ul":539,"Ġ5":540,"Ġ6":541,"inal":542,"ond":543,"ork":544,"ĠSp":545,"ited":546,"ĠRed":547,"ida":548,"ĠKnight":549,"lorida":550,"community":551,"ĠChaos":552,"'t":553,"22":554,"gin":555,"ith":556,"ter":557,"ug":558,"âĻ":559,"ong":560,"ĠTh":561,"ĠTeam":562,"ard":563,"ĠAgg":564,"steam":565,"ever":566,"CFB":567,"myanimelist":568,"ĠAggies":569,"steamcommunity":570,"18":571,"ell":572,"ile":573,"qu":574,"se":575,"Ġ9":576,"reg":577,"Ġfor":578,"ays":579,"Ġto":580,"AAAA":581,"..":582,"12":583,"14":584,"56":585,"70":586,"Cle":587,"ost":588,"ww":589,"ys":590,"âĹ":591,"Ġre":592,"ass":593,"ĠAm":594,"ric":595,"ĠYork":596,"'m":597,"Al":598,"Mich":599,"av":600,"eg":601,"tl":602,"ud":603,"ine":604,"any":605,"orth":606,"ĠCh":607,"igan":608,"olor":609,"rib":610,"ado":611,"ets":612,"Ġ10":613,"Ġnot":614,"ears":615,"19":616,"50":617,"93":618,"Atl":619,"GB":620,"Sp":621,"Team":622,"aw":623,"ik":624,"iv":625,"iam":626,"ive":627,"ust":628,"ort":629,"ats":630,"ars":631,"ary":632,"itt":633,"ĠDu":634,"Ġbe":635,"irgin":636,"Ġmy":637,"anta":638,"ators":639,"ĠUnited":640,"âĻĢ":641,"regon":642,"Clemson":643,"Atlanta":644,"irginia":645,"03":646,"ER":647,"aid":648,"co":649,"der":650,"dinal":651,"ry":652,"ron":653,"Ġ8":654,"Ġk":655,"Ġr":656,"ang":657,"ĠThe":658,"ĠTexas":659,"ĠGators":660,"ĠMa":661,"ington":662,"ĠPr":663,"ots":664,"ĠRe":665,"Ġme":666,"ions":667,"ĠCardinal":668,"Ġ20":669,"ashington":670,"ĠKnights":671,"200":672,"44":673,"Florida":674,"Georgia":675,"TX":676,"ab":677,"ld":678,"oc":679,"per":680,"te":681,"ãģ":682,"are":683,"ĠCont":684,"ĠAs":685,"oma":686,"ĠHus":687,"lay":688,"iles":689,"ext":690,"utor":691,"ĠEn":692,"Ġhere":693,"119":694,"7656":695,"profiles":696,"âĹķ":697,"ributor":698,"ĠContributor":699,"ĠHuskies":700,"7656119":701,"),":702,"10":703,"Color":704,"DR":705,"MT":706,"Qu":707,"ick":708,"man":709,"oll":710,"ser":711,"tt":712,"uck":713,"âĺ":714,"Ġha":715,"anes":716,"ens":717,"oug":718,"old":719,"els":720,"owl":721,"owbo":722,"Ġwith":723,"ect":724,"ðŁĶ":725,"ĠBulls":726,"profile":727,"ĠDucks":728,"owboys":729,"13":730,"26":731,"HI":732,"Not":733,"Washington":734,"ep":735,"ied":736,"ike":737,"ipp":738,"ks":739,"ty":740,"Ġ[":741,"Ġv":742,"Ġit":743,"Ġhe":744,"one":745,"ĠCowboys":746,"ĠBla":747,"ĠBowl":748,"out":749,"ĠGeorgia":750,"urric":751,"unk":752,"ĠOne":753,"ĠUser":754,"box":755,"Michigan":756,"ðŁĶĶ":757,"urricanes":758,"Ar":759,"OU":760,"Pr":761,"TO":762,"Text":763,"Virginia":764,"ac":765,"homa":766,"ire":767,"kla":768,"ni":769,"ull":770,"âĢ":771,"Ġ'":772,"ĠZ":773,"ern":774,"ins":775,"ona":776,"ore":777,"ĠBl":778,"ĠAtt":779,"ĠHaw":780,"ĠFan":781,"own":782,"Ġdays":783,"oooo":784,"endee":785,"akers":786,"klahoma":787,"ĠAttendee":788,"37":789,"53":790,"Bot":791,"FF":792,"II":793,"MA":794,"Mar":795,"Miss":796,"TR":797,"Wa":798,"Xbox":799,"az":800,"ber":801,"ea":802,"hat":803,"mon":804,"ov":805,"oes":806,"okies":807,"rad":808,"rag":809,"rish":810,"ting":811,"uff":812,"à¼":813,"Ġ&":814,"ĠX":815,"Ġj":816,"Ġch":817,"ors":818,"ĠCoug":819,"ĠBot":820,"itch":821,"red":822,"ĠHokies":823,"ĠRock":824,"ĠDame":825,"ĠDDR":826,"ĠFight":827,"Ġthis":828,"ĠIrish":829,"ĠLong":830,"ĠLions":831,"ird":832,"ĠWol":833,"ĠYan":834,"evel":835,"Ġ16":836,"aster":837,"OTT":838,"issipp":839,"This":840,"iami":841,"aiders":842,"ãģ¤":843,"76561198":844,"Colorado":845,"MTL":846,"Mississipp":847,"ĠCougars":848,"ĠFighting":849,"Mississippi":850,"24":851,"700":852,"All":853,"En":854,"HAT":855,"KE":856,"Man":857,"Mod":858,"Oklahoma":859,"cats":860,"ef":861,"eal":862,"ford":863,"gers":864,"her":865,"horn":866,"iz":867,"ka":868,"mer":869,"oy":870,"oon":871,"ois":872,"rom":873,"sy":874,"Ġi":875,"Ġla":876,"Ġus":877,"Ġare":878,"ines":879,"anth":880,"ĠSc":881,"ĠTro":882,"ĠCom":883,"ous":884,"ĠGTX":885,"ĠGold":886,"ĠHurricanes":887,"ĠRaiders":888,"urg":889,"ston":890,"Ġbut":891,"Ġdon":892,"Ġdid":893,"under":894,"ĠOregon":895,"ĠUS":896,"Ġcl":897,"ille":898,"ĠVol":899,"ified":900,"Ġyour":901,"verines":902,"Child":903,"...":904,"www":905,"ĠChamp":906,"aby":907,"ĠRockies":908,"ĠLonghorn":909,"ĠWolverines":910,"ĠGolden":911,"ĠLonghorns":912,"60":913,"87":914,"AL":915,"CS":916,"IS":917,"Kni":918,"No":919,"Sh":920,"Un":921,"UCF":922,"War":923,"ael":924,"acks":925,"cle":926,"ead":927,"here":928,"lt":929,"nt":930,"oth":931,"oot":932,"ph":933,"ring":934,"up":935,"van":936,"ville":937,"±S":938,"Î±S":939,"âľ":940,"Ġas":941,"ĠQu":942,"eran":943,"atri":944,"ation":945,"ĠBears":946,"ĠAn":947,"ĠAr":948,"ĠAll":949,"ĠMiami":950,"ree":951,"reat":952,"oles":953,"ster":954,"owa":955,"ĠNorth":956,"ĠNitt":957,"heever":958,"eteran":959,"ĠWild":960,"kees":961,"age":962,"ðŁĩ":963,"ĠVeteran":964,"ĠGaming":965,"ender":966,"ally":967,"artans":968,"USA":969,"ĠSpartans":970,"Ġ1080":971,"Notre":972,"ĠYankees":973,"Knicks":974,"ĠNittany":975,"ĠWildcats":976,"!!":977,"'ll":978,"30":979,"52":980,"69":981,"90":982,"AH":983,"AR":984,"Be":985,"Cat":986,"Cal":987,"DE":988,"Es":989,"IL":990,"Jam":991,"North":992,"OD":993,"Oregon":994,"Pl":995,"Penn":996,"Patri":997,"Que":998,"Sc":999,"TE":1000,"Tor":1001,"ah":1002,"ake":1003,"act":1004,"cons":1005,"don":1006,"dit":1007,"eb":1008,"ial":1009,"ium":1010,"oke":1011,"ove":1012,"pi":1013,"ru":1014,"rat":1015,"ris":1016,"ral":1017,"sh":1018,"ta":1019,"tle":1020,"ure":1021,"Ġ+":1022,"Ġ7":1023,"Ġat":1024,"Ġst":1025,"Ġà¼":1026,"inc":1027,"ink":1028,"onn":1029,"ones":1030,"anc":1031,"anford":1032,"ouston":1033,"ale":1034,"ĠMich":1035,"ings":1036,"rew":1037,"read":1038,"ĠPar":1039,"ĠPoll":1040,"elb":1041,"riz":1042,"rick":1043,"ĠHun":1044,"ider":1045,"ĠDays":1046,"let":1047,"ĠFlorida":1048,"ower":1049,"Ġdo":1050,"ook":1051,"Ġsh":1052,"ose":1053,"hief":1054,"ney":1055,"emin":1056,"Ġlike":1057,"ction":1058,"onto":1059,"arty":1060,"apt":1061,"USF":1062,"AAAAAAAA":1063,"ĠCardinals":1064,"Ġ2017":1065,"anthers":1066,"Toronto":1067,"hiefs":1068,"100":1069,"45":1070,"49":1071,"73":1072,"AM":1073,"AN":1074,"AP":1075,"Ariz":1076,"Bar":1077,"GE":1078,"Gr":1079,"HER":1080,"IP":1081,"If":1082,"Lakers":1083,"Level":1084,"Min":1085,"Med":1086,"MIN":1087,"Master":1088,"ND":1089,"One":1090,"Rock":1091,"UG":1092,"Ver":1093,"__":1094,"bels":1095,"burg":1096,"ein":1097,"gain":1098,"hn":1099,"iP":1100,"ii":1101,"io":1102,"ix":1103,"jans":1104,"les":1105,"lvan":1106,"me":1107,"met":1108,"ox":1109,"oin":1110,"och":1111,"rans":1112,"yd":1113,"yz":1114,"yes":1115,"Ġ\"":1116,"Ġ@":1117,"Ġor":1118,"ĠðŁ":1119,"Ġever":1120,"erv":1121,"erator":1122,"onf":1123,"ane":1124,"ank":1125,"ato":1126,"ĠSemin":1127,"arch":1128,"ĠBe":1129,"ĠBr":1130,"igh":1131,"ouis":1132,"ality":1133,"ĠMod":1134,"ream":1135,"olog":1136,"ĠPal":1137,"ĠPenn":1138,"rive":1139,"ated":1140,"ĠHer":1141,"ade":1142,"adi":1143,"urr":1144,"ĠDev":1145,"lair":1146,"Ġbl":1147,"Ġdeat":1148,"oop":1149,"unte":1150,"Ġthat":1151,"ics":1152,"ict":1153,"Ġwe":1154,"use":1155,"Ġso":1156,"ĠYOU":1157,"ĠEl":1158,"ester":1159,"ago":1160,"ager":1161,"ife":1162,"iforn":1163,"1776":1164,"eep":1165,"Ġlove":1166,"Ġ30":1167,"essee":1168,"Choo":1169,"ĠJo":1170,"ansas":1171,"ourne":1172,"Thunder":1173,"ING":1174,"ennessee":1175,"ello":1176,"ĠAmaz":1177,"ĠMach":1178,"ĠRebels":1179,"ĠAscle":1180,"âĺħ":1181,"Ġhapp":1182,"ĠHawks":1183,"KEK":1184,"ĠTrojans":1185,"ĠVolunte":1186,"ĠChampion":1187,"Patriots":1188,"pius":1189,"elbourne":1190,"Arizona":1191,"lvania":1192,"yzen":1193,"ĠSeminoles":1194,"Ġdeath":1195,"ifornia":1196,"ĠAmazing":1197,"ĠAsclepius":1198,"ĠVolunteers":1199,"33":1200,"35":1201,"522":1202,"65":1203,"74":1204,"79":1205,"BO":1206,"Bl":1207,"Bull":1208,"CP":1209,"Che":1210,"DD":1211,"Drag":1212,"Ex":1213,"Funk":1214,"GOD":1215,"IC":1216,"In":1217,"Iowa":1218,"Mary":1219,"NA":1220,"OL":1221,"Pack":1222,"Ryzen":1223,"SC":1224,"Sk":1225,"Sam":1226,"Tennessee":1227,"VA":1228,"West":1229,"WHAT":1230,"_âĹķ":1231,"ach":1232,"ace":1233,"bl":1234,"cc":1235,"cm":1236,"dam":1237,"ft":1238,"for":1239,"go":1240,"gt":1241,"ger":1242,"gland":1243,"ho":1244,"hz":1245,"ib":1246,"iers":1247,"kansas":1248,"lin":1249,"ling":1250,"ladi":1251,"ment":1252,"pir":1253,"rist":1254,"sel":1255,"uy":1256,"ual":1257,"zo":1258,"¸ı":1259,"ãĢ":1260,"ï¸ı":1261,"Ġe":1262,"Ġen":1263,"Ġne":1264,"Ġqu":1265,"ĠâĹķ":1266,"ĠâĢ":1267,"Ġãģ¤":1268,"ĠÎ±S":1269,"erm":1270,"iny":1271,"ince":1272,"inois":1273,"orld":1274,"ath":1275,"atch":1276,"ĠSh":1277,"ĠTer":1278,"arl":1279,"arm":1280,"ĠCF":1281,"ĠCub":1282,"ĠCorn":1283,"ĠChiefs":1284,"ise":1285,"iscons":1286,"ĠBE":1287,"ĠBig":1288,"ĠBad":1289,"ĠBaby":1290,"erson":1291,"llinois":1292,"ase":1293,"ign":1294,"ĠAT":1295,"ĠAlabama":1296,"ould":1297,"ount":1298,"alin":1299,"olut":1300,"ĠPro":1301,"ĠPanthers":1302,"riors":1303,"ĠHel":1304,"ĠHouston":1305,"ids":1306,"ada":1307,"Ġbest":1308,"ĠNOT":1309,"Ġdrive":1310,"ĠIllinois":1311,"ica":1312,"icago":1313,"ils":1314,"ily":1315,"ĠLe":1316,"Ġwh":1317,"Ġwill":1318,"ĠWest":1319,"uty":1320,"ĠOct":1321,"Ġfrom":1322,"ĠYell":1323,"Ġagain":1324,"ĠEs":1325,"ĠEgg":1326,"even":1327,"keyes":1328,"hip":1329,"entuck":1330,"Ġcan":1331,"Ġpro":1332,"Ġplay":1333,"illary":1334,"ĠVirginia":1335,"Ġgo":1336,"ifu":1337,"ends":1338,"rac":1339,"rap":1340,"rav":1341,"Chicago":1342,"ĠJack":1343,"Stanford":1344,"iana":1345,"ober":1346,"ï¼¥":1347,"ĠThree":1348,"Michael":1349,"ikato":1350,"iamond":1351,"Ġhave":1352,"ĠBlacks":1353,"ĠBlue":1354,"ĠHawkeyes":1355,"oooooooo":1356,"Waikato":1357,"reddit":1358,"765611982":1359,"sylvania":1360,"ĠQuakers":1361,"California":1362,"James":1363,"Ġà¼½":1364,"ĠMichigan":1365,"rewman":1366,"ĠHunting":1367,"ĠPennsylvania":1368,"ĠDevils":1369,"Packers":1370,"ĠâĹķ_âĹķ":1371,"ĠCubs":1372,"isconsin":1373,"ĠYellow":1374,"entucky":1375,"ĠJackets":1376,"Michaela":1377,"06":1378,"21":1379,"28":1380,"57":1381,"68":1382,"75":1383,"84":1384,"88":1385,"99":1386,";&":1387,"AD":1388,"AS":1389,"AY":1390,"Ale":1391,"And":1392,"Aust":1393,"Bal":1394,"Best":1395,"Bro":1396,"Bost":1397,"Bron":1398,"CN":1399,"Cl":1400,"Cel":1401,"CHI":1402,"Do":1403,"Diamond":1404,"EN":1405,"EU":1406,"EAH":1407,"Fit":1408,"GA":1409,"GTX":1410,"HD":1411,"HH":1412,"Im":1413,"It":1414,"Ind":1415,"Jo":1416,"KA":1417,"KB":1418,"LL":1419,"Lu":1420,"Ly":1421,"Lord":1422,"LAL":1423,"MP":1424,"My":1425,"Melbourne":1426,"On":1427,"Op":1428,"Or":1429,"Red":1430,"Rut":1431,"Rich":1432,"ST":1433,"Sec":1434,"Sheever":1435,"TS":1436,"Ti":1437,"To":1438,"Tot":1439,"Tic":1440,"Treat":1441,"Trick":1442,"Und":1443,"VE":1444,"What":1445,"WHER":1446,"Wisconsin":1447,"YY":1448,"You":1449,"YEAH":1450,"ai":1451,"aj":1452,"aur":1453,"air":1454,"aul":1455,"aifu":1456,"bad":1457,"ble":1458,"cel":1459,"cos":1460,"da":1461,"day":1462,"ew":1463,"eer":1464,"eers":1465,"fi":1466,"gur":1467,"hone":1468,"iot":1469,"iant":1470,"ji":1471,"ky":1472,"kin":1473,"kats":1474,"ler":1475,"mond":1476,"nes":1477,"ok":1478,"ool":1479,"pl":1480,"ram":1481,"rot":1482,"ray":1483,"su":1484,"ti":1485,"tics":1486,"uper":1487,"witch":1488,"where":1489,"xJames":1490,"yth":1491,"yle":1492,"za":1493,"¨ðŁĩ":1494,"ÌĹ":1495,"ãĤ":1496,"Ġ:":1497,"Ġz":1498,"Ġan":1499,"Ġour":1500,"Ġass":1501,"Ġany":1502,"Ġup":1503,"Ġeven":1504,"ĲĬ":1505,"erb":1506,"erg":1507,"inst":1508,"inum":1509,"onk":1510,"onville":1511,"ann":1512,"ese":1513,"ater":1514,"ative":1515,"atinum":1516,"ĠST":1517,"ĠSe":1518,"ĠSy":1519,"ĠSun":1520,"ĠSouth":1521,"ĠSher":1522,"ĠTr":1523,"ĠTow":1524,"ĠTHAT":1525,"arf":1526,"arlet":1527,"ĠCE":1528,"ĠCor":1529,"ĠCat":1530,"ĠCent":1531,"ism":1532,"ĠBand":1533,"ĠBear":1534,"ĠBoot":1535,"the":1536,"asu":1537,"ason":1538,"ĠAl":1539,"oud":1540,"ouse":1541,"ĠGB":1542,"ĠGC":1543,"ĠGW":1544,"ite":1545,"ital":1546,"alc":1547,"alk":1548,"ĠME":1549,"ĠMc":1550,"ĠMan":1551,"ĠMad":1552,"ĠMount":1553,"ĠMCN":1554,"ret":1555,"chester":1556,"ĠPl":1557,"ĠPower":1558,"ĠPoin":1559,"ely":1560,"rid":1561,"rif":1562,"omin":1563,"ĠHorn":1564,"ĠHello":1565,"otect":1566,"ĠRam":1567,"ĠRev":1568,"ĠDrag":1569,"ĠFr":1570,"lave":1571,"Ġbot":1572,"Ġbad":1573,"Ġbec":1574,"ĠNot":1575,"off":1576,"ofess":1577,"Ġdr":1578,"ooper":1579,"ĠII":1580,"ĠIn":1581,"ilia":1582,"ĠLon":1583,"ĠLSU":1584,"ĠLouis":1585,"Ġwr":1586,"irl":1587,"uss":1588,"Ġshe":1589,"Ġsince":1590,"Ġman":1591,"Ġmade":1592,"ĠOn":1593,"Ġfood":1594,"haw":1595,"ĠKing":1596,"ĠEx":1597,"Ġ120":1598,"aylor":1599,"Ġtoo":1600,"Ġ290":1601,"veg":1602,"ðŁĮ":1603,"ðŁĲĬ":1604,"Ġparty":1605,"Ġher":1606,"ills":1607,"Ġgood":1608,"Ġgoes":1609,"emoc":1610,"Ġint":1611,"uman":1612,"Ġno":1613,"Ġnever":1614,"asta":1615,"Ġlife":1616,"Ġ36":1617,"vern":1618,"verified":1619,"Christ":1620,"aineers":1621,"Ġ40":1622,"eattle":1623,"Ġonly":1624,"INF":1625,"ffic":1626,"oph":1627,"Ġ6700":1628,"Ġ980":1629,"Ġread":1630,"rica":1631,"Alp":1632,"aval":1633,"194":1634,"ives":1635,"Ġ2015":1636,"ĠAspir":1637,"ĠEnoch":1638,"ĠEngland":1639,"765611980":1640,"Quality":1641,"ollow":1642,"Ġhell":1643,"ĠBlack":1644,"outub":1645,"TOR":1646,"ully":1647,"âĢ¿":1648,"rades":1649,"Manchester":1650,"Moderator":1651,"Ġlaw":1652,"Ġuser":1653,"ĠScarlet":1654,"Ġclass":1655,"United":1656,"Warriors":1657,"acksonville":1658,"ĠNorthern":1659,"ðŁĩ¨ðŁĩ":1660,"Ess":1661,"ialist":1662,"ratic":1663,"GETS":1664,"UGGETS":1665,"Verified":1666,"iPhone":1667,"ydney":1668,"ology":1669,"ictor":1670,"Ġweird":1671,"ĠMachine":1672,"âĺħâĺħ":1673,"Bulls":1674,"Maryland":1675,"ladiator":1676,"ĠTerrap":1677,"ĠCFII":1678,"ĠBadgers":1679,"olution":1680,"ĠHelmet":1681,"ï¼¥ï¼":1682,"ĠHuntingdon":1683,"AlexJames":1684,"Boston":1685,"Celtics":1686,"Fitz":1687,"OpTic":1688,"Rutgers":1689,"Richmond":1690,"WHERE":1691,"ĠTowers":1692,"ĠCentral":1693,"ĠBearkats":1694,"ĠMountaineers":1695,"ĠMCNUGGETS":1696,"ĠRevolution":1697,"emocratic":1698,"Christian":1699,"ðŁĩ¨ðŁĩ¦":1700,"ĠTerrapins":1701,"AlexJamesFitz":1702,"'d":1703,"05":1704,"09":1705,"23":1706,"39":1707,"48":1708,"480":1709,"430":1710,"54":1711,"593":1712,"61":1713,"64":1714,"650":1715,"78":1716,"95":1717,"AB":1718,"AC":1719,"Aut":1720,"Act":1721,"BI":1722,"BL":1723,"Br":1724,"Bast":1725,"Baylor":1726,"CA":1727,"CL":1728,"Can":1729,"Cre":1730,"Col":1731,"Cla":1732,"Conf":1733,"Crewman":1734,"Don":1735,"Dis":1736,"EO":1737,"FW":1738,"For":1739,"Fly":1740,"Fuck":1741,"GT":1742,"GW":1743,"Game":1744,"Ghz":1745,"HE":1746,"HU":1747,"Hit":1748,"Hurricanes":1749,"HOU":1750,"HING":1751,"Hillary":1752,"House":1753,"KS":1754,"Kyle":1755,"Lum":1756,"Leg":1757,"Lein":1758,"MC":1759,"Mu":1760,"Mer":1761,"Mpr":1762,"Mass":1763,"NI":1764,"NZ":1765,"Nin":1766,"ON":1767,"OS":1768,"Offic":1769,"PC":1770,"PL":1771,"Pol":1772,"Pro":1773,"Pain":1774,"Post":1775,"Play":1776,"Pac":1777,"Poke":1778,"RE":1779,"RI":1780,"RT":1781,"Right":1782,"Rob":1783,"Rav":1784,"Rep":1785,"Real":1786,"RAP":1787,"SB":1788,"SD":1789,"SE":1790,"SI":1791,"SL":1792,"Sha":1793,"Sub":1794,"Sain":1795,"Seattle":1796,"TC":1797,"Tit":1798,"Trans":1799,"Vy":1800,"Vik":1801,"Well":1802,"XX":1803,"Xe":1804,"Yas":1805,"Your":1806,"au":1807,"aim":1808,"app":1809,"aff":1810,"aug":1811,"bs":1812,"by":1813,"bor":1814,"best":1815,"bout":1816,"backs":1817,"ca":1818,"cl":1819,"can":1820,"cul":1821,"eth":1822,"eet":1823,"eem":1824,"fam":1825,"ful":1826,"fort":1827,"fMpr":1828,"ge":1829,"iel":1830,"iet":1831,"iver":1832,"iqu":1833,"ioc":1834,"ious":1835,"ject":1836,"joy":1837,"kas":1838,"lbor":1839,"mm":1840,"min":1841,"ming":1842,"milia":1843,"nol":1844,"oid":1845,"ooma":1846,"pe":1847,"ps":1848,"pt":1849,"ple":1850,"put":1851,"pack":1852,"que":1853,"row":1854,"ros":1855,"ress":1856,"rang":1857,"she":1858,"sheever":1859,"tra":1860,"ues":1861,"uig":1862,"uch":1863,"upp":1864,"ually":1865,"ves":1866,"wo":1867,"west":1868,"wag":1869,"weat":1870,"ware":1871,"world":1872,"yke":1873,"ycl":1874,"ze":1875,"©R":1876,"Ì¼":1877,"Íī":1878,"Î©R":1879,"âĦ":1880,"âĪ":1881,"åį":1882,"Ġ0":1883,"Ġx":1884,"Ġle":1885,"Ġun":1886,"Ġhttp":1887,"Ġro":1888,"Ġhttps":1889,"Ġeat":1890,"Ġï¼":1891,"Ġâľ":1892,"ĠQue":1893,"Ĵ¯":1894,"ĺĦ":1895,"ery":1896,"ind":1897,"inn":1898,"anic":1899,"orm":1900,"orts":1901,"orter":1902,"ormon":1903,"esid":1904,"ates":1905,"ating":1906,"atur":1907,"ations":1908,"ature":1909,"ĠSE":1910,"ĠSq":1911,"ĠSw":1912,"ĠSha":1913,"ĠSub":1914,"ĠSide":1915,"ĠSoon":1916,"ĠSox":1917,"ĠSky":1918,"ĠSatur":1919,"ark":1920,"arin":1921,"ĠCW":1922,"ĠCan":1923,"ĠCal":1924,"ĠCap":1925,"ĠCost":1926,"ĠCany":1927,"ĠColor":1928,"ĠCiv":1929,"ĠClin":1930,"ĠCycl":1931,"amm":1932,"ĠBi":1933,"ĠBall":1934,"ĠBitch":1935,"enh":1936,"cker":1937,"aska":1938,"iginal":1939,"igaby":1940,"ĠAi":1941,"ound":1942,"ĠGS":1943,"ĠGen":1944,"ĠGuy":1945,"ĠGiant":1946,"ĠGoph":1947,"ĠGaim":1948,"ĠGigaby":1949,"iting":1950,"ition":1951,"itts":1952,"alty":1953,"ĠMK":1954,"ĠMer":1955,"ĠMag":1956,"ĠMem":1957,"ĠMak":1958,"ĠMaster":1959,"rey":1960,"reen":1961,"cher":1962,"olm":1963,"ĠPCS":1964,"ĠPink":1965,"ĠParty":1966,"ĠPuig":1967,"elf":1968,"ria":1969,"rim":1970,"rium":1971,"omb":1972,"omer":1973,"ĠHP":1974,"ĠHe":1975,"ĠHar":1976,"ĠHot":1977,"ĠHere":1978,"ota":1979,"otland":1980,"ĠRes":1981,"eder":1982,"idian":1983,"ador":1984,"urs":1985,"ĠDel":1986,"ĠFire":1987,"Ġbow":1988,"Ġback":1989,"Ġbook":1990,"Ġdie":1991,"Ġdue":1992,"Ġdoes":1993,"Ġdream":1994,"Ġdating":1995,"heat":1996,"ette":1997,"unat":1998,"Ġthere":1999,"Ġthings":2000,"ĠIR":2001,"ĠId":2002,"ĠInd":2003,"ĠIII":2004,"ĠIowa":2005,"ĠLeg":2006,"ĠLTR":2007,"ĠLEO":2008,"Ġwas":2009,"Ġwant":2010,"Ġwhat":2011,"irst":2012,"usa":2013,"Ġsay":2014,"ista":2015,"ĠWashington":2016,"utt":2017,"Ġmain":2018,"Ġmuch":2019,"ĠOhio":2020,"ĠOld":2021,"ĠYour":2022,"Ġall":2023,"Ġaction":2024,"ĠKev":2025,"ĠKill":2026,"ĠKentucky":2027,"ĠEv":2028,"ĠEag":2029,"ĠEmilia":2030,"Ġ11":2031,"Ġthey":2032,"000":2033,"ogs":2034,"ayne":2035,"estro":2036,"kek":2037,"Ġtie":2038,"Ġtrades":2039,"Ġcre":2040,"Ġcont":2041,"Ġcons":2042,"ðŁĴ¯":2043,"ðŁĺĦ":2044,"Ġput":2045,"Ġhas":2046,"Ġhand":2047,"Ġhold":2048,"Ġhigh":2049,"ĠVider":2050,"Ġgirl":2051,"iff":2052,"emi":2053,"Ġyears":2054,"endon":2055,"endor":2056,"Neil":2057,"umb":2058,"Ġnoth":2059,"eek":2060,"rain":2061,"Ġlong":2062,"ichi":2063,"press":2064,"Charl":2065,"ĠJunk":2066,"ĠJones":2067,"ĠJacksonville":2068,"odes":2069,"ours":2070,"aki":2071,"aint":2072,"Ġ48":2073,"Stalin":2074,"obal":2075,"onserv":2076,"Ġone":2077,"That":2078,"ATE":2079,"ATI":2080,"oper":2081,"ondon":2082,"ĠSpread":2083,"gineer":2084,"âĻ¡":2085,"ĠThird":2086,"ĠThread":2087,"5670":2088,"Ġred":2089,"ĠAmer":2090,"ĠAmin":2091,"Alan":2092,"avers":2093,"ega":2094,"ude":2095,"ĠChoo":2096,"Span":2097,"Spurs":2098,"arsity":2099,"ERO":2100,"rying":2101,"ĠMax":2102,"ĠPrinc":2103,"ĠProtect":2104,"ĠProfess":2105,"ocialist":2106,"layer":2107,"âĺŃ":2108,"ought":2109,"HIP":2110,"eputy":2111,"Ġhead":2112,"ðŁĶĶðŁĶĶ":2113,"TOM":2114,"MAGA":2115,"Mark":2116,"Marlbor":2117,"à¼¼":2118,"Ġchat":2119,"eveloper":2120,"Ġ1600":2121,"ealth":2122,"ĠTroy":2123,"CSS":2124,"other":2125,"ĠQuam":2126,"ĠAna":2127,"ĠAng":2128,"ĠArkansas":2129,"!!!":2130,"DET":2131,"Esse":2132,"Plus":2133,"Platinum":2134,"Scotland":2135,"TEAM":2136,"Ġstill":2137,"ĠPark":2138,"Ġdoing":2139,"AAAAAAAAAAAAAAAA":2140,"Barcel":2141,"Barista":2142,"Grand":2143,"Minnes":2144,"Medioc":2145,"OnePlus":2146,"ĠBeavers":2147,"Choose":2148,"Ġhappen":2149,"Blood":2150,"Cheese":2151,"Dragon":2152,"Skooma":2153,"Ġenjoy":2154,"Ġneed":2155,"Ġquiet":2156,"ĠâĢĵ":2157,"ĠCorndog":2158,"ĠNOTHING":2159,"ĠOctober":2160,"raven":2161,"redditor":2162,"Broncos":2163,"John":2164,"Lukas":2165,"ything":2166,"Ġ:(":2167,"ĠSheriff":2168,"ĠBandwag":2169,"italist":2170,"ĠPowerColor":2171,"ĠRams":2172,"Ġwrong":2173,"vegan":2174,"ðŁĲĬðŁĲĬ":2175,"Alpha":2176,"avaliers":2177,"ĠAspiring":2178,"ollowing":2179,"TORS":2180,"Flying":2181,"Hitler":2182,"Leinster":2183,"Murica":2184,"Robot":2185,"RAPTORS":2186,"Saints":2187,"Titans":2188,"Vikings":2189,"Xeon":2190,"Yasiel":2191,"aught":2192,"nolia":2193,"puter":2194,"western":2195,"âĦ¢":2196,"âĪĨ":2197,"åįĲ":2198,"Ġrob":2199,"esident":2200,"ĠSooners":2201,"ĠSaturday":2202,"ĠCapitalist":2203,"ĠCostayne":2204,"ĠColorado":2205,"ĠClinton":2206,"ĠCyclones":2207,"ĠGophers":2208,"ĠGaiman":2209,"ĠGigabyte":2210,"ittsburg":2211,"ĠLegends":2212,"ĠKevin":2213,"estroy":2214,"Ġconsent":2215,"ĠVideri":2216,"ĠJunkie":2217,"StalinåįĲ":2218,"onservative":2219,"Marlboro":2220,"Barcelona":2221,"Minnesota":2222,"Mediocre":2223,"ĠBandwagon":2224,"'re":2225,")(":2226,"))":2227,")/":2228,"**":2229,".\"":2230,"02":2231,"07":2232,"053":2233,"117":2234,"25":2235,"27":2236,"29":2237,"250":2238,"32":2239,"315":2240,"370":2241,"40":2242,"47":2243,"437":2244,"424":2245,"474":2246,"570":2247,"63":2248,"66":2249,"680":2250,"6100":2251,"72":2252,"712":2253,"770":2254,"719":2255,"7700":2256,"82":2257,"86":2258,"800":2259,"826":2260,"853":2261,"92":2262,"97":2263,"An":2264,"Ap":2265,"As":2266,"Az":2267,"Aid":2268,"Ast":2269,"AGB":2270,"Adam":2271,"Abs":2272,"BS":2273,"Bu":2274,"Bat":2275,"Bas":2276,"Big":2277,"Bla":2278,"BOT":2279,"BUS":2280,"Bul":2281,"Buff":2282,"Bring":2283,"CH":2284,"CK":2285,"CT":2286,"CW":2287,"Car":2288,"Cha":2289,"Chi":2290,"Card":2291,"CAAAA":2292,"CTO":2293,"CAR":2294,"Conn":2295,"Capt":2296,"Chiefs":2297,"Crot":2298,"Casta":2299,"Crying":2300,"DI":2301,"DP":2302,"Des":2303,"Dar":2304,"Den":2305,"Dig":2306,"Dev":2307,"Dem":2308,"Dang":2309,"Does":2310,"Deputy":2311,"DTOM":2312,"Em":2313,"Eur":2314,"Einst":2315,"FI":2316,"FK":2317,"FU":2318,"Fer":2319,"Far":2320,"Fam":2321,"Fal":2322,"Fri":2323,"Fil":2324,"Fland":2325,"Fender":2326,"Fuse":2327,"GH":2328,"GN":2329,"GP":2330,"GS":2331,"GY":2332,"Gl":2333,"Gen":2334,"Gast":2335,"Gord":2336,"Great":2337,"Germ":2338,"HZ":2339,"He":2340,"How":2341,"Hun":2342,"Hul":2343,"Head":2344,"Houston":2345,"Hello":2346,"HRT":2347,"IO":2348,"Iw":2349,"IBUS":2350,"IGN":2351,"JC":2352,"Jorg":2353,"Jack":2354,"Jul":2355,"Junk":2356,"KC":2357,"KD":2358,"KY":2359,"Kat":2360,"Kit":2361,"King":2362,"Keep":2363,"Kentucky":2364,"Kool":2365,"LE":2366,"Lo":2367,"Lee":2368,"Law":2369,"Look":2370,"Louis":2371,"London":2372,"Ma":2373,"Mc":2374,"Mr":2375,"Mon":2376,"Mat":2377,"Mal":2378,"Mand":2379,"Mil":2380,"Mim":2381,"Mag":2382,"Mant":2383,"Mech":2384,"Morth":2385,"Miami":2386,"Moon":2387,"MIL":2388,"Make":2389,"NC":2390,"NJ":2391,"NT":2392,"Na":2393,"Non":2394,"Nev":2395,"Night":2396,"Nast":2397,"Name":2398,"NAT":2399,"NER":2400,"OM":2401,"OP":2402,"OR":2403,"Ob":2404,"Ol":2405,"Over":2406,"OPS":2407,"Oct":2408,"OVE":2409,"OKC":2410,"PD":2411,"PE":2412,"PH":2413,"PI":2414,"PP":2415,"Po":2416,"Paid":2417,"Pois":2418,"Panthers":2419,"Pix":2420,"PIC":2421,"Paul":2422,"QS":2423,"RA":2424,"RL":2425,"RX":2426,"Rh":2427,"Ro":2428,"Ren":2429,"Row":2430,"Rog":2431,"Rest":2432,"Raid":2433,"RIS":2434,"Rapt":2435,"Riot":2436,"SG":2437,"SV":2438,"Sl":2439,"Ser":2440,"San":2441,"Sen":2442,"She":2443,"Sil":2444,"Squ":2445,"Sys":2446,"SKA":2447,"Super":2448,"Sydney":2449,"Semi":2450,"SATI":2451,"STEAM":2452,"SPIC":2453,"TM":2454,"TN":2455,"TT":2456,"Ten":2457,"Tent":2458,"Tens":2459,"TKD":2460,"UA":2461,"UK":2462,"Up":2463,"Us":2464,"Upp":2465,"UCP":2466,"VY":2467,"Va":2468,"Vin":2469,"Val":2470,"VUn":2471,"VKB":2472,"WA":2473,"We":2474,"Wy":2475,"Wes":2476,"Wish":2477,"WCS":2478,"WVUn":2479,"XBL":2480,"Zj":2481,"][":2482,"ax":2483,"ail":2484,"ave":2485,"aNo":2486,"ause":2487,"aily":2488,"br":2489,"bt":2490,"bec":2491,"back":2492,"bug":2493,"bring":2494,"bah":2495,"boop":2496,"beep":2497,"butt":2498,"cu":2499,"cer":2500,"cing":2501,"ced":2502,"cem":2503,"cap":2504,"crib":2505,"cio":2506,"clave":2507,"cIw":2508,"den":2509,"dom":2510,"dry":2511,"died":2512,"down":2513,"dead":2514,"dict":2515,"democratic":2516,"dHead":2517,"eh":2518,"eol":2519,"eed":2520,"eur":2521,"eop":2522,"fo":2523,"fw":2524,"fer":2525,"fol":2526,"fri":2527,"fter":2528,"gb":2529,"gs":2530,"gu":2531,"gar":2532,"gal":2533,"ged":2534,"gay":2535,"gladiator":2536,"hh":2537,"hv":2538,"hing":2539,"hel":2540,"hir":2541,"hus":2542,"hard":2543,"ier":2544,"iat":2545,"ien":2546,"iol":2547,"ique":2548,"ja":2549,"ko":2550,"kers":2551,"kill":2552,"lo":2553,"ls":2554,"lu":2555,"low":2556,"loo":2557,"lif":2558,"line":2559,"like":2560,"luff":2561,"mg":2562,"mes":2563,"men":2564,"mand":2565,"mormon":2566,"ny":2567,"nad":2568,"now":2569,"nack":2570,"oic":2571,"over":2572,"par":2573,"pre":2574,"pur":2575,"pic":2576,"pro":2577,"port":2578,"pasta":2579,"pful":2580,"ports":2581,"rr":2582,"rar":2583,"rand":2584,"rus":2585,"rum":2586,"rust":2587,"sch":2588,"siers":2589,"sUp":2590,"to":2591,"tw":2592,"tin":2593,"tus":2594,"titt":2595,"tober":2596,"tenh":2597,"uar":2598,"uate":2599,"uild":2600,"uine":2601,"uars":2602,"ured":2603,"vin":2604,"vir":2605,"vador":2606,"vette":2607,"wh":2608,"way":2609,"wear":2610,"ward":2611,"warf":2612,"wau":2613,"wealth":2614,"wls":2615,"wsUp":2616,"xs":2617,"xast":2618,"yb":2619,"yo":2620,"yBot":2621,"ywhere":2622,"yvern":2623,"youtub":2624,"ypasta":2625,"zers":2626,"zda":2627,"¥³":2628,"§å":2629,"ªŀ":2630,"®ï¼":2631,"¯âĺ":2632,"°Ð":2633,"°ï¼":2634,"±or":2635,"²ł":2636,"²ï¼¥ï¼":2637,"³ï¼¥ï¼":2638,"ºcio":2639,"½¡":2640,"Ã±or":2641,"Ãºcio":2642,"Ä±":2643,"Ì¥":2644,"Ð°Ð":2645,"Ñģ":2646,"à²ł":2647,"âĳ":2648,"ãĥ":2649,"å¥³":2650,"æķ":2651,"æĸ":2652,"æľ":2653,"èªŀ":2654,"ï½¡":2655,"Ġ.":2656,"Ġ=":2657,"Ġu":2658,"ĠÃ":2659,"Ġal":2660,"Ġad":2661,"Ġex":2662,"Ġim":2663,"Ġif":2664,"Ġend":2665,"Ġanim":2666,"Ġ70":2667,"Ġ03":2668,"Ġout":2669,"Ġown":2670,"Ġlet":2671,"Ġrac":2672,"Ġover":2673,"Ĳ¯âĺ":2674,"ķï¸ı":2675,"ŀÌĹ":2676,"ŁÍī":2677,"łï¸ı":2678,"erco":2679,"erry":2680,"inet":2681,"inct":2682,"ony":2683,"onth":2684,"aney":2685,"ance":2686,"anzo":2687,"orst":2688,"oria":2689,"orris":2690,"orbacks":2691,"esent":2692,"esap":2693,"ĠSW":2694,"ĠSi":2695,"ĠSm":2696,"ĠSal":2697,"ĠSch":2698,"ĠSec":2699,"ĠSent":2700,"ĠSAA":2701,"ĠSqu":2702,"ĠSTR":2703,"ĠSea":2704,"ĠSurr":2705,"ĠSlave":2706,"ĠSydney":2707,"ĠSSD":2708,"ĠSaint":2709,"ĠSnack":2710,"ĠTB":2711,"ĠTX":2712,"ĠTi":2713,"ĠTar":2714,"ĠTen":2715,"ĠTall":2716,"ĠTop":2717,"ĠTeb":2718,"ĠTrans":2719,"ĠTalk":2720,"ĠTHE":2721,"ĠTwo":2722,"ĠTrain":2723,"ĠTWCS":2724,"arco":2725,"arza":2726,"ĠCA":2727,"ĠCR":2728,"ĠCl":2729,"ĠCo":2730,"ĠCate":2731,"ĠCamp":2732,"ĠCity":2733,"ĠCob":2734,"ĠCul":2735,"ĠCup":2736,"ĠCru":2737,"ĠConn":2738,"ĠConf":2739,"ĠCrewman":2740,"ĠCavaliers":2741,"ĠConservative":2742,"ĠCrus":2743,"ames":2744,"isco":2745,"ĠBS":2746,"ĠBack":2747,"ĠBron":2748,"ĠBots":2749,"ĠBea":2750,"ĠBrew":2751,"enix":2752,"ersity":2753,"ersburg":2754,"that":2755,"theb":2756,"cky":2757,"asa":2758,"asm":2759,"igation":2760,"igged":2761,"ĠAd":2762,"ĠAuburn":2763,"ĠAlt":2764,"ĠAbout":2765,"ĠAeol":2766,"oun":2767,"ĠGT":2768,"ĠGl":2769,"ĠGo":2770,"ĠGem":2771,"ĠGod":2772,"ĠGreg":2773,"ĠGND":2774,"ĠGalin":2775,"ĠGladiator":2776,"ĠGarza":2777,"its":2778,"itas":2779,"itter":2780,"itsu":2781,"itigation":2782,"ali":2783,"als":2784,"alan":2785,"aling":2786,"ĠMe":2787,"ĠMk":2788,"ĠMon":2789,"ĠMen":2790,"ĠMed":2791,"ĠMoo":2792,"ĠMus":2793,"ĠMill":2794,"ĠMess":2795,"ĠMiss":2796,"ĠMust":2797,"ĠMore":2798,"ĠMelbourne":2799,"ĠMids":2800,"ĠMalc":2801,"ĠMarin":2802,"ĠMother":2803,"ĠMHZ":2804,"reak":2805,"chie":2806,"chann":2807,"olas":2808,"olic":2809,"olith":2810,"olfi":2811,"ĠPin":2812,"ĠPri":2813,"ĠPoo":2814,"ĠPet":2815,"ĠPast":2816,"ĠPra":2817,"ĠPie":2818,"ĠPlay":2819,"ĠPoke":2820,"ĠPho":2821,"ĠPerson":2822,"ĠPittsburg":2823,"eld":2824,"eli":2825,"elich":2826,"rix":2827,"rian":2828,"ome":2829,"oming":2830,"omot":2831,"ĠHR":2832,"ĠHoo":2833,"ĠHond":2834,"ĠHard":2835,"ĠHots":2836,"ĠHDD":2837,"ĠHillary":2838,"ĠHuman":2839,"ĠHERO":2840,"ĠHanzo":2841,"ĠStanford":2842,"ĠStates":2843,"ĠStolfi":2844,"ĠStrix":2845,"ĠRond":2846,"ĠReg":2847,"ĠRaz":2848,"ĠRally":2849,"ĠRose":2850,"ĠRaj":2851,"ĠRuss":2852,"ĠRBI":2853,"ĠRomer":2854,"ades":2855,"aders":2856,"admin":2857,"ura":2858,"ures":2859,"urant":2860,"ĠDO":2861,"ĠDon":2862,"ĠDest":2863,"ĠDav":2864,"ĠDream":2865,"ĠDeveloper":2866,"ĠDaught":2867,"ĠDurant":2868,"leB":2869,"leh":2870,"ley":2871,"lets":2872,"ĠFor":2873,"ĠFies":2874,"ĠFish":2875,"ĠFeat":2876,"ĠFlair":2877,"ĠFalc":2878,"ĠFeet":2879,"ĠFNa":2880,"ĠFTM":2881,"stinct":2882,"Ġbo":2883,"Ġbus":2884,"Ġbitch":2885,"Ġbonk":2886,"Ġbills":2887,"Ġbtw":2888,"owdown":2889,"ĠNC":2890,"ĠNich":2891,"ĠNord":2892,"ĠNav":2893,"ĠNew":2894,"ĠNorris":2895,"Ġdish":2896,"Ġdown":2897,"Ġdemocratic":2898,"Ġdamm":2899,"Ġdestroy":2900,"Ġdaily":2901,"head":2902,"heart":2903,"eta":2904,"etts":2905,"una":2906,"une":2907,"unch":2908,"unction":2909,"undry":2910,"ĠIra":2911,"ĠIMP":2912,"ĠBut":2913,"ĠBuick":2914,"ĠBusch":2915,"ico":2916,"ican":2917,"iced":2918,"icut":2919,"icated":2920,"iliz":2921,"ilib":2922,"ĠLv":2923,"ĠLag":2924,"ĠLord":2925,"ĠLea":2926,"ĠLead":2927,"Ġwent":2928,"Ġwish":2929,"Ġwash":2930,"Ġwood":2931,"Ġwould":2932,"Ġwaifu":2933,"Ġwcing":2934,"irly":2935,"irty":2936,"irming":2937,"usetts":2938,"Ġsc":2939,"Ġson":2940,"Ġsex":2941,"Ġsha":2942,"Ġsub":2943,"Ġsee":2944,"Ġsuck":2945,"Ġsac":2946,"Ġsupp":2947,"Ġsalty":2948,"Ġsocialist":2949,"isting":2950,"ecs":2951,"ecel":2952,"ĠWA":2953,"ĠWar":2954,"ĠWill":2955,"ĠWere":2956,"ĠWard":2957,"ĠWho":2958,"ĠWorld":2959,"ĠWaifu":2960,"ĠWater":2961,"ĠWHIP":2962,"ĠWyvern":2963,"uto":2964,"uts":2965,"utch":2966,"utism":2967,"Ġmem":2968,"Ġmob":2969,"Ġmerry":2970,"Ġmonth":2971,"ĠOur":2972,"ĠOHL":2973,"ĠOklahoma":2974,"ĠOrang":2975,"ĠOUA":2976,"Ġfr":2977,"Ġfan":2978,"Ġfire":2979,"Ġfanc":2980,"Ġflair":2981,"Ġfeder":2982,"Ġfought":2983,"Ġfollowing":2984,"Ġfunction":2985,"ĠYes":2986,"ĠYou":2987,"ĠYears":2988,"ĠYoutub":2989,"ĠYelich":2990,"Ġapp":2991,"Ġautism":2992,"ĠKe":2993,"ĠKHL":2994,"ĠKOT":2995,"ĠEQ":2996,"ĠEU":2997,"ĠEast":2998,"ĠENER":2999,"ĠERA":3000,"ime":3001,"immer":3002,"imgur":3003,"eve":3004,"ional":3005,"Ġ15":3006,"Ġ144":3007,"Ġ1800":3008,"Ġthem":3009,"ogic":3010,"ogdon":3011,"eston":3012,"estar":3013,"estling":3014,"kee":3015,"oss":3016,"osu":3017,"Ġtak":3018,"Ġtake":3019,"agram":3020,"aguars":3021,"ĠUAB":3022,"Ġ28":3023,"Ġ200":3024,"Ġ268":3025,"entle":3026,"Ġcat":3027,"Ġcut":3028,"Ġcop":3029,"Ġcould":3030,"new":3031,"nell":3032,"ðŁį":3033,"ðŁĳ":3034,"Ġper":3035,"Ġpay":3036,"Ġpart":3037,"Ġperson":3038,"Ġpeop":3039,"Ġhis":3040,"Ġhug":3041,"Ġhours":3042,"illing":3043,"ĠVendor":3044,"ĠVarsity":3045,"Ġgb":3046,"Ġgr":3047,"Ġgod":3048,"Ġgame":3049,"Ġgive":3050,"Ġgeek":3051,"ĠGame":3052,"roll":3053,"roid":3054,"emple":3055,"170":3056,"1700":3057,"ĠNHLR":3058,"Nebr":3059,"eye":3060,"umni":3061,"Ġnon":3062,"Ġnow":3063,"Ġname":3064,"raf":3065,"raft":3066,"Ġlate":3067,"Ġlash":3068,"Ġlitigation":3069,"Ġ38":3070,"Ġ318":3071,"Ġ3712":3072,"esses":3073,"earch":3074,"ĠJr":3075,"ĠJoy":3076,"ĠBucky":3077,"CFI":3078,"ody":3079,"ppy":3080,"ief":3081,"ieature":3082,"ctor":3083,"lybt":3084,"alls":3085,"alled":3086,"allow":3087,"lord":3088,"arter":3089,"2016":3090,"2012":3091,"2073":3092,"2088":3093,"Ġ42":3094,"Ġ4570":3095,"Star":3096,"Stick":3097,"aper":3098,"cell":3099,"ĠUnverified":3100,"USMC":3101,"USNT":3102,"communicated":3103,"ATP":3104,"ope":3105,"ennium":3106,"oodle":3107,"oodraven":3108,"Ġ500":3109,"Ġ650":3110,"Ġ603":3111,"inals":3112,"222":3113,"228":3114,"ithout":3115,"tern":3116,"ugar":3117,"ĠThust":3118,"ĠThunder":3119,"ĠThrot":3120,"184":3121,"quilib":3122,"season":3123,"Ġ960":3124,"141":3125,"osts":3126,"âĹ¡":3127,"Ġreally":3128,"ĠAmster":3129,"Alber":3130,"Alumni":3131,"udd":3132,"ĠChar":3133,"Ġ107":3134,"Ġ1050":3135,"198":3136,"Spider":3137,"Specs":3138,"iversity":3139,"orto":3140,"ittalk":3141,"ĠDuke":3142,"rya":3143,"rone":3144,"Ġ84":3145,"Ġkit":3146,"Ġking":3147,"Ġknow":3148,"Ġknew":3149,"Ġru":3150,"Ġrest":3151,"Ġrigged":3152,"ĠMac":3153,"ĠMazda":3154,"ĠPrusa":3155,"ĠRead":3156,"Ġmeow":3157,"Ġ2016":3158,"4469":3159,"ãģ¥":3160,"ĠEngineer":3161,"âĹķâĢ¿":3162,"icker":3163,"âĺłï¸ı":3164,"ensland":3165,"ecticut":3166,"136":3167,"2672":3168,"epcIw":3169,"Ġvictor":3170,"Ġviol":3171,"ĠBlazers":3172,"boxgladiator":3173,"Ars":3174,"Art":3175,"Army":3176,"Arkansas":3177,"Princ":3178,"President":3179,"acy":3180,"âĢĻ":3181,"ĠZimmer":3182,"ĠBloke":3183,"ĠBlues":3184,"ĠBloodraven":3185,"372":3186,"532":3187,"FFF":3188,"FFFFF":3189,"Maria":3190,"Waiting":3191,"monwealth":3192,"oves":3193,"uffin":3194,"Ġjack":3195,"Ġjust":3196,"Ġjok":3197,"Ġchief":3198,"reddied":3199,"ĠYank":3200,"765611982088":3201,"Enoch":3202,"Enfor":3203,"Energ":3204,"izard":3205,"oise":3206,"ĠiOS":3207,"Ġlaug":3208,"Ġlaundry":3209,"Ġusers":3210,"Ġused":3211,"ĠScully":3212,"ĠScien":3213,"ĠCommun":3214,"ĠComputer":3215,"ĠCommonwealth":3216,"urgery":3217,"Ġdidn":3218,"ĠUSA":3219,"ĠUSC":3220,"ĠUSF":3221,"ĠUSHL":3222,"Ġclub":3223,"ĠVolcan":3224,"87437":3225,"ISS":3226,"phis":3227,"phoria":3228,"âľ¨":3229,"âľ¿":3230,"ĠNorthwestern":3231,"525":3232,"52136":3233,"AHDI":3234,"Beer":3235,"Becky":3236,"Catalan":3237,"Calvin":3238,"ILL":3239,"Northland":3240,"Queen":3241,"Quebec":3242,"actus":3243,"actuar":3244,"ralia":3245,"shoff":3246,"Ġà¼¼":3247,"ancisco":3248,"ĠMichael":3249,"ĠParent":3250,"Ġshower":3251,"Ġshittalk":3252,"1000":3253,"ANI":3254,"Grant":3255,"Medium":3256,"Rockets":3257,"Rocktober":3258,"UGW":3259,"____":3260,"iPad":3261,"iiii":3262,"meow":3263,"metto":3264,"ĠðŁĴ":3265,"ĠðŁĲ¯âĺ":3266,"Ġeverything":3267,"Ġeverywhere":3268,"ervation":3269,"ankt":3270,"archist":3271,"ĠBright":3272,"ĠBrogdon":3273,"ĠModerator":3274,"ologist":3275,"ĠPals":3276,"ĠPalmetto":3277,"ĠHercul":3278,"Ġblood":3279,"ĠElite":3280,"ĠJoe":3281,"ĠJohn":3282,"ĠMachado":3283,"5225":3284,"5225225":3285,"Blaney":3286,"CPL":3287,"Cheers":3288,"Exmormon":3289,"Excommunicated":3290,"NAVY":3291,"Western":3292,"achusetts":3293,"former":3294,"govern":3295,"ãĢģ":3296,"Ġequilib":3297,"inyasa":3298,"atches":3299,"ĠShorter":3300,"ĠShowdown":3301,"arma":3302,"ĠCornhus":3303,"igner":3304,"Ġwhy":3305,"Ġwhen":3306,"ĠOctane":3307,"ĠEsq":3308,"ĠEsports":3309,"hipmen":3310,"Ġproble":3311,"racuse":3312,"oooooooooooooooo":3313,"76561198287437":3314,"5776":3315,"ADHD":3316,"AYANI":3317,"Austria":3318,"Australia":3319,"BaldHead":3320,"Cloud":3321,"Doctor":3322,"ENT":3323,"EUphoria":3324,"Imgur":3325,"Indiana":3326,"Lyn":3327,"Lying":3328,"Onion":3329,"Original":3330,"STL":3331,"Secret":3332,"Tottenh":3333,"Underg":3334,"Underco":3335,"auresap":3336,"instagram":3337,"ĠSeÃ±or":3338,"ĠSyracuse":3339,"ĠTrash":3340,"ĠTrooper":3341,"ĠCorvette":3342,"ĠCornell":3343,"ĠCatter":3344,"theist":3345,"ĠManager":3346,"ĠMadrid":3347,"ĠPoint":3348,"ĠPoints":3349,"rificed":3350,"ĠHorned":3351,"ĠHornets":3352,"ĠDragons":3353,"ĠFrogs":3354,"Ġbecause":3355,"Ġbecome":3356,"ĠNotre":3357,"Ġdrink":3358,"ĠInter":3359,"ĠLonzo":3360,"ĠLonestar":3361,"ĠOnly":3362,"ĠOnager":3363,"hawks":3364,"ĠKingdom":3365,"ĠExtra":3366,"ðŁĮĲ":3367,"INFJ":3368,"INFP":3369,"Ġready":3370,"Ġreading":3371,"ĠBlackmon":3372,"Essex":3373,"Essendon":3374,"âĺħâĺħâĺħ":3375,"Automot":3376,"Actually":3377,"Bastion":3378,"CLG":3379,"Canada":3380,"Creator":3381,"Columb":3382,"ClawsUp":3383,"Confirming":3384,"Force":3385,"KSNA":3386,"Massachusetts":3387,"Nint":3388,"Official":3389,"Polish":3390,"Painkill":3391,"Postseason":3392,"Pacers":3393,"Pokey":3394,"Ravens":3395,"Reposts":3396,"VyUs":3397,"affe":3398,"family":3399,"fortunat":3400,"iques":3401,"iously":3402,"sheets":3403,"weather":3404,"Ġleft":3405,"ĠQueensland":3406,"anical":3407,"ĠSEC":3408,"ĠSqauresap":3409,"ĠShacker":3410,"ĠCanyons":3411,"ĠCivic":3412,"ĠBiology":3413,"ĠGenji":3414,"ĠGiants":3415,"ĠMKII":3416,"ĠMeridian":3417,"ĠMagic":3418,"ĠMakes":3419,"ĠHeels":3420,"ĠHarris":3421,"ĠHotty":3422,"heatware":3423,"ĠIdi":3424,"ĠIndiana":3425,"Ġmains":3426,"ĠEagles":3427,"kekz":3428,"Ġnothing":3429,"Ġlonger":3430,"Charlie":3431,"ĠSpreadsheets":3432,"Ġredd":3433,"ĠAmerican":3434,"Spanish":3435,"ĠPrincesses":3436,"ĠProtector":3437,"ĠProfessor":3438,"ĠAngels":3439,"Ġhappened":3440,"Ġquietkekz":3441,"Johntheb":3442,"Ġrobot":3443,"0533":3444,"4742":3445,"Apost":3446,"Astros":3447,"AGBAYANI":3448,"Batting":3449,"Basic":3450,"Black":3451,"Bulgar":3452,"Cardinals":3453,"CAAAAAHDI":3454,"Crotty":3455,"Castaic":3456,"Designer":3457,"Denver":3458,"Europe":3459,"Einstein":3460,"Ferrar":3461,"Falcons":3462,"Friend":3463,"Film":3464,"Flanders":3465,"GHz":3466,"Global":3467,"Genuine":3468,"Gaston":3469,"Gordon":3470,"Germany":3471,"Hulme":3472,"IBUSHI":3473,"Jorge":3474,"Junkrat":3475,"Kitshoff":3476,"Lawbring":3477,"Louisville":3478,"Maud":3479,"Monolith":3480,"Milwau":3481,"Mimi":3482,"Magnolia":3483,"Mantis":3484,"Mechanical":3485,"Morthal":3486,"Nevada":3487,"Nasty":3488,"NATO":3489,"Poison":3490,"Pixel":3491,"Rowbutt":3492,"Rogue":3493,"Raider":3494,"RISON":3495,"Raptors":3496,"SVHD":3497,"Sysadmin":3498,"SATIRE":3499,"SPICY":3500,"Upper":3501,"Wyoming":3502,"Wesley":3503,"WVUnick":3504,"ZjL":3505,"aNoZ":3506,"criber":3507,"friends":3508,"gsi":3509,"helpful":3510,"nadhir":3511,"tittieature":3512,"wlsearch":3513,"xastik":3514,"youtube":3515,"®ï¼´":3516,"°ï¼²ï¼¥ï¼":3517,"³ï¼¥ï¼®ï¼´":3518,"âĳ®":3519,"æķĻ":3520,"æĸĩ":3521,"Ġaddict":3522,"Ġ038":3523,"Ġracist":3524,"ķï¸ıâľ¨":3525,"inetic":3526,"ĠSalvador":3527,"ĠSAAB":3528,"ĠSurrender":3529,"ĠTebow":3530,"ĠTranscriber":3531,"ĠTraining":3532,"ĠCampine":3533,"ĠCobra":3534,"ĠCult":3535,"ĠConforto":3536,"ĠCrusaders":3537,"ĠBrewers":3538,"ĠAeolus":3539,"ĠGalinha":3540,"ĠMedia":3541,"ĠMoochie":3542,"ĠMillennium":3543,"ĠMustang":3544,"ĠMidshipmen":3545,"ĠMalcolm":3546,"ĠMariners":3547,"channel":3548,"ĠPoobah":3549,"ĠPetersburg":3550,"ĠPraise":3551,"ĠPokemon":3552,"ĠPhoenix":3553,"ĠHoosiers":3554,"ĠHonda":3555,"ĠHotspur":3556,"ĠRondo":3557,"ĠRegal":3558,"ĠRazorbacks":3559,"ĠRajon":3560,"ĠRomero":3561,"ĠDestiny":3562,"ĠDreams":3563,"ĠDaughters":3564,"ĠFiesta":3565,"ĠFeatured":3566,"ĠFalcon":3567,"ĠFNaF":3568,"ĠNicholas":3569,"ĠNordiques":3570,"ĠNavy":3571,"Ġdishes":3572,"Ġdammit":3573,"ĠIraq":3574,"ĠIMPRISON":3575,"ilization":3576,"ĠLagaffe":3577,"Ġsacrificed":3578,"Ġsupport":3579,"ĠWillis":3580,"ĠWorlds":3581,"Ġmobile":3582,"Ġmerryweather":3583,"ĠOrange":3584,"Ġfancy":3585,"Ġfederal":3586,"Ġfunctioning":3587,"ĠYoutuber":3588,"ĠKOTA":3589,"Ġtaking":3590,"Ġcopypasta":3591,"Ġpeople":3592,"Nebraska":3593,"Ġlashes":3594,"Ġ3187":3595,"StickyBot":3596,"USNTDP":3597,"ĠThustMaster":3598,"ĠThrottle":3599,"ĠAmsterdam":3600,"Alberta":3601,"âĹķâĢ¿âĹķ":3602,"epcIwZjL":3603,"Ġvictory":3604,"Ġviolate":3605,"Princes":3606,"ĠZimmerman":3607,"Ġjokes":3608,"reddiedyke":3609,"76561198208852136":3610,"Enforced":3611,"Energy":3612,"ĠScience":3613,"ĠVolcano":3614,"Calvinist":3615,"Ġshittalking":3616,"ĠðŁĲ¯âĺķï¸ıâľ¨":3617,"ĠHercules":3618,"government":3619,"Ġequilibrium":3620,"ĠCornhuskers":3621,"Ġproblems":3622,"76561198287437532":3623,"Tottenham":3624,"Undergrad":3625,"Undercover":3626,"Automotive":3627,"Columbia":3628,"Painkiller":3629,"fortunately":3630,"ĠSqauresapce":3631,"Johntheboss":3632,"Bulgaria":3633,"CAAAAAHDIFFFFF":3634,"Ferrari":3635,"Lawbringer":3636,"Milwaukee":3637,"°ï¼²ï¼¥ï¼³ï¼¥ï¼®ï¼´":3638,"!\"":3639,"\".":3640,"$(":3641,"$-":3642,"%.":3643,"''":3644,"(@":3645,"(âĹķâĢ¿âĹķ":3646,")&":3647,").":3648,");":3649,")_":3650,")âĻ¡":3651,"*ãĢ":3652,",.":3653,"--":3654,"/.":3655,"01":3656,"08":3657,"011":3658,"010":3659,"087":3660,"122":3661,"216":3662,"212":3663,"214":3664,"293":3665,"244":3666,"210":3667,"237":3668,"34":3669,"36":3670,"300":3671,"319":3672,"344":3673,"310":3674,"313":3675,"360":3676,"388":3677,"386":3678,"41":3679,"42":3680,"46":3681,"400":3682,"411":3683,"422":3684,"493":3685,"460":3686,"409":3687,"4184":3688,"4141":3689,"4313":3690,"51":3691,"55":3692,"58":3693,"512":3694,"557":3695,"62":3696,"600":3697,"616":3698,"670":3699,"679":3700,"6222":3701,"71":3702,"720":3703,"714":3704,"728":3705,"820":3706,"865":3707,"96":3708,"98":3709,"900":3710,"913":3711,"953":3712,"945":3713,"978":3714,":^":3715,";âĹ":3716,";--":3717,"??":3718,"AK":3719,"AW":3720,"Ad":3721,"Ah":3722,"Am":3723,"Av":3724,"App":3725,"Abo":3726,"Aud":3727,"AMA":3728,"AKE":3729,"Amer":3730,"Ant":3731,"AIL":3732,"Acc":3733,"AERO":3734,"Aja":3735,"Arya":3736,"Atheist":3737,"BA":3738,"BV":3739,"Bi":3740,"Ban":3741,"Bre":3742,"Bad":3743,"Bof":3744,"Band":3745,"Burn":3746,"Bear":3747,"Ball":3748,"Back":3749,"Bob":3750,"Beat":3751,"Bug":3752,"Bass":3753,"Bears":3754,"Bang":3755,"Bunk":3756,"Brad":3757,"Boy":3758,"Burg":3759,"Breat":3760,"Bris":3761,"Bio":3762,"Bane":3763,"Bank":3764,"Boop":3765,"BVE":3766,"Bok":3767,"Bills":3768,"Butt":3769,"BPD":3770,"Budd":3771,"Boise":3772,"CU":3773,"Ci":3774,"Cer":3775,"Con":3776,"Cor":3777,"Cam":3778,"Cas":3779,"Cir":3780,"Cut":3781,"Cent":3782,"Cant":3783,"Cast":3784,"Cod":3785,"Cak":3786,"Cob":3787,"Cond":3788,"Clay":3789,"Cowboys":3790,"COD":3791,"Cinc":3792,"CAN":3793,"Curr":3794,"COL":3795,"Casu":3796,"CMC":3797,"Cobal":3798,"Cavaliers":3799,"Conservative":3800,"CGY":3801,"Coun":3802,"Craf":3803,"Carter":3804,"Cactuar":3805,"CENT":3806,"DA":3807,"DF":3808,"DM":3809,"DS":3810,"DX":3811,"De":3812,"Dr":3813,"Du":3814,"Dv":3815,"Dou":3816,"Dol":3817,"Del":3818,"Dad":3819,"Dur":3820,"Dim":3821,"Day":3822,"Dest":3823,"Dra":3824,"Dod":3825,"Dlor":3826,"DOT":3827,"Doc":3828,"Down":3829,"Duff":3830,"DAL":3831,"Deb":3832,"Donn":3833,"DVer":3834,"Dream":3835,"Dual":3836,"Deer":3837,"Domin":3838,"DFW":3839,"Deem":3840,"Destroy":3841,"DOM":3842,"Dirty":3843,"Disting":3844,"Dutch":3845,"DCent":3846,"EE":3847,"EF":3848,"EL":3849,"ES":3850,"EV":3851,"Ec":3852,"El":3853,"Ev":3854,"Eat":3855,"Ear":3856,"Eve":3857,"Egg":3858,"Eff":3859,"EDR":3860,"Eston":3861,"EDE":3862,"EGE":3863,"END":3864,"Err":3865,"Etern":3866,"FC":3867,"FO":3868,"FP":3869,"FR":3870,"Fa":3871,"Fi":3872,"Fo":3873,"Fr":3874,"Fu":3875,"Fin":3876,"Fre":3877,"Fel":3878,"Fir":3879,"Fut":3880,"Fum":3881,"Fee":3882,"FPS":3883,"Fort":3884,"Fern":3885,"Fore":3886,"Femin":3887,"Fox":3888,"Flair":3889,"Face":3890,"Follow":3891,"FCre":3892,"Fau":3893,"First":3894,"Following":3895,"Feh":3896,"Fluff":3897,"Fisting":3898,"Fallow":3899,"GI":3900,"GL":3901,"GM":3902,"GO":3903,"GR":3904,"Go":3905,"Gu":3906,"Ger":3907,"Gin":3908,"Gal":3909,"GSt":3910,"Gap":3911,"Good":3912,"Gud":3913,"Gary":3914,"Gry":3915,"Gab":3916,"Gird":3917,"Gup":3918,"Girl":3919,"Gives":3920,"Grey":3921,"Green":3922,"GATI":3923,"Gentle":3924,"HS":3925,"Ho":3926,"Hat":3927,"Ham":3928,"Hot":3929,"Hist":3930,"Hog":3931,"Hey":3932,"Hum":3933,"Horn":3934,"Hob":3935,"Heat":3936,"Hels":3937,"Heal":3938,"HAR":3939,"High":3940,"HKB":3941,"Hai":3942,"Herb":3943,"Human":3944,"HTC":3945,"Happ":3946,"Hier":3947,"Hali":3948,"HFR":3949,"IA":3950,"IM":3951,"IU":3952,"IV":3953,"Ir":3954,"Is":3955,"Ire":3956,"Iex":3957,"Iron":3958,"Int":3959,"IGE":3960,"IVE":3961,"ITT":3962,"JK":3963,"JP":3964,"Jer":3965,"Jon":3966,"Jar":3967,"Jay":3968,"Jess":3969,"Jall":3970,"Just":3971,"Jaz":3972,"JAS":3973,"Jacksonville":3974,"Jaguars":3975,"Ken":3976,"Kas":3977,"Kur":3978,"Kir":3979,"Kha":3980,"Kay":3981,"Kain":3982,"Kont":3983,"KOT":3984,"Kik":3985,"Kah":3986,"KING":3987,"KHH":3988,"KKA":3989,"Kapp":3990,"KWA":3991,"Karma":3992,"Kinetic":3993,"LI":3994,"LT":3995,"LV":3996,"LY":3997,"Le":3998,"Lv":3999,"Lin":4000,"Lon":4001,"Les":4002,"Lis":4003,"Len":4004,"Las":4005,"Lit":4006,"Late":4007,"Low":4008,"Let":4009,"Lil":4010,"Lim":4011,"Los":4012,"Lag":4013,"LIN":4014,"Liam":4015,"Lots":4016,"Lions":4017,"LDR":4018,"LII":4019,"Lea":4020,"Linc":4021,"Life":4022,"Lind":4023,"Lunat":4024,"LOVE":4025,"LÃºcio":4026,"Loves":4027,"LJP":4028,"MD":4029,"MG":4030,"MI":4031,"MK":4032,"MM":4033,"MR":4034,"MW":4035,"Mor":4036,"Men":4037,"Mot":4038,"Mad":4039,"Mex":4040,"Mog":4041,"May":4042,"Might":4043,"Mem":4044,"Mont":4045,"Mart":4046,"Map":4047,"MOT":4048,"Mike":4049,"More":4050,"Male":4051,"Murr":4052,"Mach":4053,"Math":4054,"Maj":4055,"Monk":4056,"MSI":4057,"Maki":4058,"Maint":4059,"MFI":4060,"Meh":4061,"Muffin":4062,"MENT":4063,"MEL":4064,"NE":4065,"NO":4066,"NQ":4067,"NS":4068,"NY":4069,"Ni":4070,"Nu":4071,"Ny":4072,"Nor":4073,"Now":4074,"Nex":4075,"Nob":4076,"Nons":4077,"Nets":4078,"Nike":4079,"Nov":4080,"NAR":4081,"NAP":4082,"NEU":4083,"Nomin":4084,"Naval":4085,"NNI":4086,"NSD":4087,"Norm":4088,"Nude":4089,"NBA":4090,"NLV":4091,"OC":4092,"OG":4093,"OO":4094,"OZ":4095,"Od":4096,"Of":4097,"Oq":4098,"Ole":4099,"Old":4100,"OBOT":4101,"Outs":4102,"PM":4103,"Ps":4104,"Per":4105,"Pan":4106,"Pre":4107,"Pot":4108,"Ple":4109,"Pand":4110,"Pir":4111,"Pist":4112,"Pog":4113,"Pant":4114,"Past":4115,"Pee":4116,"Pul":4117,"Pard":4118,"Peg":4119,"Pine":4120,"Port":4121,"PER":4122,"PHI":4123,"Pire":4124,"Poy":4125,"Power":4126,"POL":4127,"Pach":4128,"Pyth":4129,"PPL":4130,"Pittsburg":4131,"POR":4132,"PGSt":4133,"QU":4134,"Qrow":4135,"QDX":4136,"RU":4137,"RY":4138,"Re":4139,"Res":4140,"Rom":4141,"Rev":4142,"Ros":4143,"Rash":4144,"Rond":4145,"Raw":4146,"Rik":4147,"Rive":4148,"Ripp":4149,"Raiders":4150,"Roy":4151,"Read":4152,"RTE":4153,"Reb":4154,"RIP":4155,"Raff":4156,"ROVE":4157,"RNO":4158,"ROBOT":4159,"SK":4160,"SW":4161,"Sm":4162,"So":4163,"Sy":4164,"Sin":4165,"Son":4166,"Som":4167,"Sur":4168,"Sle":4169,"Sla":4170,"Shi":4171,"Sant":4172,"See":4173,"Sak":4174,"Same":4175,"Sud":4176,"Sort":4177,"SER":4178,"SMA":4179,"Sea":4180,"Soon":4181,"Sage":4182,"Sonn":4183,"SAM":4184,"Serv":4185,"Since":4186,"Sai":4187,"Serb":4188,"SGT":4189,"SHU":4190,"Somer":4191,"Slayer":4192,"SJC":4193,"SKY":4194,"Sugar":4195,"SMW":4196,"SNSD":4197,"SRY":4198,"TF":4199,"TJ":4200,"TP":4201,"Tw":4202,"Tom":4203,"Tid":4204,"Tur":4205,"Til":4206,"Tir":4207,"Tha":4208,"Tim":4209,"THL":4210,"Tee":4211,"TAAAA":4212,"Trib":4213,"Trad":4214,"TIS":4215,"Tree":4216,"TAH":4217,"Take":4218,"Tru":4219,"TFW":4220,"Two":4221,"Trium":4222,"TPP":4223,"TILL":4224,"THFR":4225,"UN":4226,"UP":4227,"UOT":4228,"User":4229,"UFF":4230,"Ult":4231,"Usel":4232,"ULL":4233,"UMP":4234,"UCL":4235,"UNI":4236,"UTOM":4237,"UBS":4238,"UPH":4239,"URNO":4240,"Vl":4241,"Vx":4242,"Vol":4243,"Vir":4244,"Vill":4245,"Vap":4246,"Vond":4247,"VIL":4248,"Vanc":4249,"VAN":4250,"Vladi":4251,"Vendor":4252,"Varsity":4253,"VPI":4254,"Vinyasa":4255,"VUser":4256,"WB":4257,"WC":4258,"WG":4259,"Wr":4260,"Wen":4261,"Will":4262,"Wra":4263,"Wall":4264,"Wears":4265,"Wars":4266,"Wuff":4267,"Who":4268,"WAS":4269,"Week":4270,"WRL":4271,"XO":4272,"Xand":4273,"XBO":4274,"YS":4275,"Yin":4276,"Yama":4277,"Year":4278,"YOU":4279,"YSE":4280,"YCH":4281,"YPE":4282,"ZE":4283,"Ze":4284,"Zir":4285,"Zary":4286,"ZOO":4287,"]ãĢģ":4288,"^_":4289,"_(âĹķâĢ¿âĹķ":4290,"ae":4291,"af":4292,"ao":4293,"aÃ":4294,"aan":4295,"aes":4296,"aide":4297,"aver":4298,"auty":4299,"aiting":4300,"aichi":4301,"aunch":4302,"aPog":4303,"be":4304,"bin":4305,"ban":4306,"bar":4307,"bam":4308,"big":4309,"bit":4310,"bil":4311,"bir":4312,"bub":4313,"bant":4314,"bear":4315,"bie":4316,"ball":4317,"bian":4318,"beat":4319,"bass":4320,"bane":4321,"base":4322,"baj":4323,"bonk":4324,"bps":4325,"build":4326,"break":4327,"cf":4328,"ci":4329,"cs":4330,"cy":4331,"ces":4332,"car":4333,"cis":4334,"cia":4335,"cut":4336,"cent":4337,"cess":4338,"cour":4339,"corn":4340,"cock":4341,"cord":4342,"core":4343,"cMar":4344,"cial":4345,"cuy":4346,"crap":4347,"cze":4348,"cpar":4349,"crust":4350,"casm":4351,"cali":4352,"craf":4353,"called":4354,"cactus":4355,"dk":4356,"dl":4357,"du":4358,"din":4359,"dan":4360,"dor":4361,"date":4362,"dad":4363,"die":4364,"dont":4365,"daz":4366,"dank":4367,"dray":4368,"drif":4369,"doodle":4370,"ek":4371,"eel":4372,"eim":4373,"ems":4374,"epp":4375,"eird":4376,"eago":4377,"eque":4378,"epress":4379,"eForce":4380,"fu":4381,"fx":4382,"fel":4383,"fina":4384,"fast":4385,"fish":4386,"fuck":4387,"fire":4388,"full":4389,"fore":4390,"fting":4391,"foot":4392,"flair":4393,"fica":4394,"frica":4395,"fully":4396,"fpack":4397,"feed":4398,"fluff":4399,"freddiedyke":4400,"gc":4401,"gf":4402,"gl":4403,"gp":4404,"gor":4405,"gat":4406,"gen":4407,"got":4408,"goo":4409,"gun":4410,"gha":4411,"gif":4412,"gend":4413,"gly":4414,"grad":4415,"gender":4416,"geb":4417,"gamm":4418,"gLit":4419,"hu":4420,"hw":4421,"hor":4422,"his":4423,"has":4424,"hand":4425,"hic":4426,"hil":4427,"hro":4428,"hild":4429,"host":4430,"hale":4431,"hment":4432,"hound":4433,"holm":4434,"hodes":4435,"hrian":4436,"hgf":4437,"ip":4438,"iu":4439,"ias":4440,"iun":4441,"iha":4442,"ios":4443,"iast":4444,"iine":4445,"iper":4446,"ips":4447,"iBeat":4448,"iMG":4449,"jan":4450,"jas":4451,"jest":4452,"job":4453,"james":4454,"jitsu":4455,"kor":4456,"kes":4457,"king":4458,"kid":4459,"kron":4460,"kka":4461,"kÄ±":4462,"kitsu":4463,"keli":4464,"kbps":4465,"lz":4466,"lam":4467,"lol":4468,"late":4469,"lot":4470,"lic":4471,"list":4472,"lut":4473,"lim":4474,"lke":4475,"light":4476,"lash":4477,"lock":4478,"lik":4479,"litt":4480,"luss":4481,"lations":4482,"lours":4483,"litter":4484,"loves":4485,"mC":4486,"ma":4487,"mo":4488,"mas":4489,"mel":4490,"mom":4491,"med":4492,"mem":4493,"mod":4494,"mont":4495,"miss":4496,"mik":4497,"mins":4498,"more":4499,"master":4500,"male":4501,"mason":4502,"mega":4503,"mlo":4504,"mpar":4505,"muffin":4506,"mlke":4507,"nc":4508,"ng":4509,"nin":4510,"ning":4511,"nec":4512,"nex":4513,"ness":4514,"name":4515,"nong":4516,"never":4517,"nigh":4518,"nhard":4519,"nance":4520,"oG":4521,"oad":4522,"oil":4523,"oha":4524,"oak":4525,"oiss":4526,"oys":4527,"oiv":4528,"ozo":4529,"oBest":4530,"oCar":4531,"oDF":4532,"oFC":4533,"oOq":4534,"py":4535,"pin":4536,"pat":4537,"pet":4538,"pus":4539,"pub":4540,"pos":4541,"pag":4542,"pend":4543,"pie":4544,"pak":4545,"part":4546,"pots":4547,"pect":4548,"poodle":4549,"pologist":4550,"pcpar":4551,"pgha":4552,"qa":4553,"ren":4554,"rig":4555,"rate":4556,"rant":4557,"rue":4558,"rins":4559,"rrick":4560,"rooper":4561,"riginal":4562,"resent":4563,"rutch":4564,"sa":4565,"so":4566,"sv":4567,"sx":4568,"son":4569,"san":4570,"sis":4571,"sas":4572,"som":4573,"sof":4574,"side":4575,"sob":4576,"squ":4577,"sav":4578,"sman":4579,"sold":4580,"ssel":4581,"salty":4582,"sail":4583,"slo":4584,"spic":4585,"swarf":4586,"spin":4587,"tm":4588,"tv":4589,"tan":4590,"til":4591,"tist":4592,"tim":4593,"tama":4594,"tie":4595,"tain":4596,"tive":4597,"tang":4598,"tiny":4599,"twitch":4600,"tega":4601,"tfo":4602,"tfw":4603,"tankt":4604,"tDual":4605,"trig":4606,"ua":4607,"uan":4608,"uic":4609,"ucks":4610,"uish":4611,"uys":4612,"ucc":4613,"ukin":4614,"uca":4615,"uition":4616,"ucuy":4617,"vo":4618,"vr":4619,"vis":4620,"vas":4621,"vch":4622,"vate":4623,"vot":4624,"vest":4625,"vod":4626,"vie":4627,"viv":4628,"vris":4629,"verson":4630,"victor":4631,"viously":4632,"we":4633,"wing":4634,"wol":4635,"wall":4636,"wish":4637,"wame":4638,"wood":4639,"ways":4640,"what":4641,"water":4642,"waiting":4643,"wbie":4644,"xx":4645,"xit":4646,"xist":4647,"xray":4648,"xboxgladiator":4649,"xSonn":4650,"yh":4651,"you":4652,"ych":4653,"yst":4654,"your":4655,"york":4656,"years":4657,"ylvania":4658,"yrim":4659,"zd":4660,"zl":4661,"zy":4662,"zon":4663,"zes":4664,"zork":4665,"zcze":4666,"zmod":4667,"~/.":4668,"¡ĵ":4669,"¡ï¼":4670,"¢ãĥ":4671,"£«":4672,"£²":4673,"¤Î":4674,"¤ï¼":4675,"¤§å":4676,"¥re":4677,"¥ï¸ı":4678,"¥ðŁĴ¯":4679,"¥æľ":4680,"§Ä±":4681,"§*ãĢ":4682,"¨¿":4683,"©ï¼":4684,"ªå":4685,"«ĺ":4686,"¬ãĥ":4687,"¬èªŀ":4688,"®å¥³":4689,"°ĳ":4690,"²Ð°Ð":4691,"²æľ":4692,"³n":4693,"³ķ":4694,"´Ì":4695,"´ne":4696,"´ï¼":4697,"´Ð°Ð":4698,"¸Ð":4699,"¸Ń":4700,"¹Ì¼":4701,"ºº":4702,"ºÐ":4703,"ºãģ":4704,"»Ð":4705,"¼ssel":4706,"½Ľ":4707,"¾Ð":4708,"¿(":4709,"¿ľ":4710,"¿ºãģ":4711,"Â»":4712,"Ã³n":4713,"Ã´ne":4714,"Ã¼ssel":4715,"Äį":4716,"Åł":4717,"Ìĺ":4718,"Ìľ":4719,"Ìł":4720,"ÌŀÌĹ":4721,"ÌŁÍī":4722,"Ì´Ì":4723,"Ì¹Ì¼":4724,"ÍĶ":4725,"ÍŀÌĹ":4726,"ÍŁÍī":4727,"Î¨":4728,"ÎĶ":4729,"Îķ":4730,"Î¤Î":4731,"ÏĨ":4732,"Ðľ":4733,"Ðł":4734,"ÐºÐ":4735,"Ð¾Ð":4736,"Ñĥ":4737,"âĨ":4738,"âĶ":4739,"âķ":4740,"âĿ":4741,"ä¸Ń":4742,"äºº":4743,"ä½Ľ":4744,"ä¿ºãģ":4745,"å£«":4746,"å¤§å":4747,"å°ĳ":4748,"æĬ":4749,"æı":4750,"æĹ":4751,"æ³ķ":4752,"ç¨¿":4753,"èĩ":4754,"è¡ĵ":4755,"éŃ":4756,"é£²":4757,"é«ĺ":4758,"Ġ!":4759,"Ġ#":4760,"Ġ?":4761,"Ġam":4762,"Ġel":4763,"Ġid":4764,"Ġke":4765,"Ġos":4766,"Ġhi":4767,"Ġill":4768,"ĠĠĊ":4769,"Ġem":4770,"Ġey":4771,"Ġama":4772,"Ġart":4773,"Ġash":4774,"Ġ80":4775,"Ġob":4776,"Ġop":4777,"ĠâĻĢ":4778,"ĠðŁĶĶ":4779,"Ġanth":4780,"Ġunder":4781,"Ġarch":4782,"ĠãĤ":4783,"Ġveg":4784,"Ġverified":4785,"ĠÎ©R":4786,"Ġrim":4787,"Ġother":4788,"Ġ!!!":4789,"Ġ____":4790,"Ġæĸĩ":4791,"Ġ$(":4792,"ĠQrow":4793,"Ġ^_":4794,"Ġ~/.":4795,"ĠÂ»":4796,"ĠÅł":4797,"ĠÍŁÍī":4798,"Ģé«ĺ":4799,"ģðŁĮ":4800,"ĤðŁĳ":4801,"Ĥâľ¿":4802,"ĥãĤ":4803,"ī))":4804,"ĭķ":4805,"ĮðŁĶ":4806,"įĢ":4807,"İĥ":4808,"ĵãģ":4809,"Ķæ³ķ":4810,"ķç¨¿":4811,"ĺĤðŁĳ":4812,"ĻĦ":4813,"ļÎķ":4814,"ľ:":4815,"Ń¦":4816,"Ńï¼¥":4817,"era":4818,"ert":4819,"eren":4820,"erate":4821,"eria":4822,"eret":4823,"erators":4824,"erous":4825,"erib":4826,"erBr":4827,"erious":4828,"erpack":4829,"errey":4830,"ertin":4831,"erwh":4832,"eruna":4833,"int":4834,"iner":4835,"inar":4836,"ined":4837,"inec":4838,"inion":4839,"inos":4840,"iness":4841,"inary":4842,"inder":4843,"inels":4844,"inks":4845,"inbl":4846,"inji":4847,"inues":4848,"inrate":4849,"onist":4850,"only":4851,"onqu":4852,"onhead":4853,"ana":4854,"ani":4855,"anks":4856,"anace":4857,"anpak":4858,"ores":4859,"oras":4860,"orig":4861,"orch":4862,"ored":4863,"oric":4864,"orill":4865,"orry":4866,"orale":4867,"orpl":4868,"oriun":4869,"esh":4870,"esis":4871,"esed":4872,"escu":4873,"eservation":4874,"esert":4875,"ati":4876,"atam":4877,"atou":4878,"atit":4879,"athe":4880,"atic":4881,"ather":4882,"ĠSD":4883,"ĠSP":4884,"ĠSR":4885,"ĠSV":4886,"ĠSo":4887,"ĠSen":4888,"ĠSas":4889,"ĠSing":4890,"ĠSel":4891,"ĠShe":4892,"ĠSil":4893,"ĠSim":4894,"ĠSos":4895,"ĠShi":4896,"ĠSamp":4897,"ĠSum":4898,"ĠSop":4899,"ĠSenn":4900,"ĠSort":4901,"ĠSoc":4902,"ĠSWa":4903,"ĠSIS":4904,"ĠSheever":4905,"ĠSBO":4906,"ĠSatch":4907,"ĠSai":4908,"ĠSuper":4909,"ĠSwitch":4910,"ĠSeattle":4911,"ĠSHE":4912,"ĠSelf":4913,"ĠSomb":4914,"ĠSocialist":4915,"ĠSlayer":4916,"ĠSTEAM":4917,"ĠSurgery":4918,"ĠSCMC":4919,"ĠSFO":4920,"ĠSLI":4921,"ĠSucc":4922,"ĠSeren":4923,"ĠSorry":4924,"ĠTH":4925,"ĠTo":4926,"ĠTit":4927,"ĠTur":4928,"ĠTia":4929,"ĠTamp":4930,"ĠTurn":4931,"ĠTant":4932,"ĠTum":4933,"ĠTob":4934,"ĠTud":4935,"ĠTang":4936,"ĠText":4937,"ĠTHI":4938,"ĠTov":4939,"ĠTrad":4940,"ĠTru":4941,"ĠTHER":4942,"ĠTank":4943,"ĠTester":4944,"ĠTennessee":4945,"ĠTOL":4946,"ĠTaylor":4947,"ĠTrades":4948,"ĠTemple":4949,"ĠTAKE":4950,"ĠTCU":4951,"ĠTaichi":4952,"ĠTych":4953,"ĠToriun":4954,"aru":4955,"ares":4956,"arth":4957,"aras":4958,"aroo":4959,"arent":4960,"arly":4961,"arian":4962,"arqu":4963,"arik":4964,"arka":4965,"arrow":4966,"arades":4967,"arcasm":4968,"arxist":4969,"ĠCS":4970,"ĠCou":4971,"ĠCit":4972,"ĠCol":4973,"ĠCot":4974,"ĠCle":4975,"ĠChe":4976,"ĠCoo":4977,"ĠCast":4978,"ĠCra":4979,"ĠCAT":4980,"ĠCass":4981,"ĠColl":4982,"ĠCHI":4983,"ĠCors":4984,"ĠCTE":4985,"ĠCapt":4986,"ĠCurr":4987,"ĠCath":4988,"ĠCould":4989,"ĠCMP":4990,"ĠCooper":4991,"ĠCSL":4992,"ĠCpt":4993,"ĠCros":4994,"ĠCactuar":4995,"ĠCHAR":4996,"ĠCPs":4997,"ĠCUBS":4998,"ĠCucuy":4999,"ĠConqu":5000,"aman":5001,"amel":5002,"amed":5003,"amic":5004,"amage":5005,"amily":5006,"amasu":5007,"isa":5008,"iser":5009,"ison":5010,"isex":5011,"isgu":5012,"iscrap":5013,"iszcze":5014,"ĠBB":5015,"ĠBy":5016,"ĠBen":5017,"ĠBal":5018,"ĠBre":5019,"ĠBom":5020,"ĠBay":5021,"ĠBest":5022,"ĠBurn":5023,"ĠBob":5024,"ĠBOT":5025,"ĠBeat":5026,"ĠBass":5027,"ĠBiz":5028,"ĠBring":5029,"ĠBOD":5030,"ĠBru":5031,"ĠBrick":5032,"ĠBapt":5033,"ĠBox":5034,"ĠBeep":5035,"ĠBerm":5036,"ĠBrav":5037,"ĠBIt":5038,"ĠBrid":5039,"ĠBRI":5040,"ĠBrian":5041,"ĠBleh":5042,"ĠBody":5043,"ĠBITT":5044,"ĠBULL":5045,"ĠBertin":5046,"ĠBinary":5047,"ĠBisex":5048,"enal":5049,"enst":5050,"enia":5051,"enim":5052,"enber":5053,"enrag":5054,"enger":5055,"ency":5056,"enwing":5057,"ersex":5058,"ershaw":5059,"lli":5060,"lly":5061,"llia":5062,"llenger":5063,"thet":5064,"thus":5065,"thens":5066,"thea":5067,"throm":5068,"thony":5069,"asar":5070,"asri":5071,"asus":5072,"asons":5073,"asse":5074,"asCapt":5075,"igon":5076,"igade":5077,"ĠAF":5078,"ĠAt":5079,"ĠAre":5080,"ĠAHL":5081,"ĠASU":5082,"ĠAnd":5083,"ĠAAAAA":5084,"ĠAte":5085,"ĠAMA":5086,"ĠAure":5087,"ĠAND":5088,"ĠAgain":5089,"ĠAcc":5090,"ĠAdam":5091,"ĠASE":5092,"ĠASI":5093,"ĠACT":5094,"ĠAFK":5095,"ĠAPP":5096,"ĠAcem":5097,"ĠAfter":5098,"ĠAuto":5099,"ĠAGL":5100,"ĠAMEL":5101,"ĠANAR":5102,"ĠAUTOM":5103,"ĠAfrica":5104,"ĠAkron":5105,"ĠApologist":5106,"ĠAwaiting":5107,"ĠAzmod":5108,"ĠAthens":5109,"oup":5110,"ouq":5111,"ouver":5112,"ĠGA":5113,"ĠGal":5114,"ĠGri":5115,"ĠGill":5116,"ĠGif":5117,"ĠGeorg":5118,"ĠGiv":5119,"ĠGMT":5120,"ĠGTO":5121,"ĠGrom":5122,"ĠGsy":5123,"ĠGender":5124,"ĠGTE":5125,"ĠGoop":5126,"ĠGhz":5127,"ĠGray":5128,"ĠGives":5129,"ĠGates":5130,"ĠGreen":5131,"ĠGrand":5132,"ĠGuild":5133,"ĠGallow":5134,"ĠGIVE":5135,"ĠGeForce":5136,"ĠGorill":5137,"ito":5138,"itub":5139,"itive":5140,"itron":5141,"itab":5142,"itated":5143,"itPost":5144,"itnance":5145,"ald":5146,"alor":5147,"along":5148,"alco":5149,"aliz":5150,"almer":5151,"alsh":5152,"alones":5153,"alanc":5154,"ĠMO":5155,"ĠMY":5156,"ĠMy":5157,"ĠMur":5158,"ĠMet":5159,"ĠMand":5160,"ĠMay":5161,"ĠMight":5162,"ĠMum":5163,"ĠMans":5164,"ĠMain":5165,"ĠMont":5166,"ĠMorn":5167,"ĠMart":5168,"ĠMons":5169,"ĠMost":5170,"ĠMass":5171,"ĠMeg":5172,"ĠMets":5173,"ĠMary":5174,"ĠMMA":5175,"ĠMov":5176,"ĠMAR":5177,"ĠMale":5178,"ĠMein":5179,"ĠMarch":5180,"ĠMath":5181,"ĠMatch":5182,"ĠMarl":5183,"ĠMAY":5184,"ĠMasu":5185,"ĠMason":5186,"ĠMSI":5187,"ĠMound":5188,"ĠMiat":5189,"ĠMISS":5190,"ĠMTHFR":5191,"ĠMinec":5192,"ĠMarqu":5193,"ingens":5194,"ingford":5195,"ingaling":5196,"rel":5197,"rell":5198,"reck":5199,"reet":5200,"reha":5201,"reem":5202,"rett":5203,"reese":5204,"reps":5205,"reci":5206,"reesed":5207,"cho":5208,"chos":5209,"chown":5210,"chath":5211,"chology":5212,"chluss":5213,"ola":5214,"oln":5215,"olon":5216,"olis":5217,"oled":5218,"olition":5219,"olerate":5220,"ĠPA":5221,"ĠPB":5222,"ĠPE":5223,"ĠPM":5224,"ĠPO":5225,"ĠPS":5226,"ĠPT":5227,"ĠPed":5228,"ĠPur":5229,"ĠPla":5230,"ĠPil":5231,"ĠPent":5232,"ĠPant":5233,"ĠPop":5234,"ĠPac":5235,"ĠPiz":5236,"ĠPsy":5237,"ĠPanth":5238,"ĠPatri":5239,"ĠPriz":5240,"ĠPose":5241,"ĠPaul":5242,"ĠPrid":5243,"ĠPills":5244,"ĠPPL":5245,"ĠPRI":5246,"ĠPyke":5247,"ĠPanic":5248,"ĠPLE":5249,"ĠPOM":5250,"ĠPolic":5251,"ĠPicker":5252,"ĠPepp":5253,"ĠPerib":5254,"ĠPanace":5255,"ĠPiszcze":5256,"eles":5257,"elst":5258,"eless":5259,"elour":5260,"elong":5261,"else":5262,"elix":5263,"elaide":5264,"rie":5265,"rior":5266,"riers":5267,"rill":5268,"rich":5269,"rioles":5270,"rime":5271,"omg":5272,"omen":5273,"oment":5274,"omment":5275,"omise":5276,"omputer":5277,"ommand":5278,"omasse":5279,"ĠHas":5280,"ĠHir":5281,"ĠHill":5282,"ĠHey":5283,"ĠHina":5284,"ĠHear":5285,"ĠHOT":5286,"ĠHug":5287,"ĠHell":5288,"ĠHats":5289,"ĠHipp":5290,"ĠHigh":5291,"ĠHYY":5292,"ĠHRT":5293,"ĠHemi":5294,"ĠHAIL":5295,"ĠHHKB":5296,"otes":5297,"oted":5298,"otia":5299,"ĠStu":5300,"ĠSting":5301,"ĠSteam":5302,"ĠStats":5303,"ĠStone":5304,"ĠStrive":5305,"ĠStyle":5306,"ĠStorm":5307,"ĠStark":5308,"ĠStarco":5309,"ĠSteve":5310,"ĠStarter":5311,"ĠStreet":5312,"ĠRG":5313,"ĠRX":5314,"ĠRid":5315,"ĠRad":5316,"ĠRoo":5317,"ĠRun":5318,"ĠRay":5319,"ĠRap":5320,"ĠRug":5321,"ĠRile":5322,"ĠRaw":5323,"ĠRust":5324,"ĠRoll":5325,"ĠRuff":5326,"ĠRoot":5327,"ĠRider":5328,"ĠRapt":5329,"ĠRAM":5330,"ĠRIP":5331,"ĠRyzen":5332,"ĠRAD":5333,"ĠRiot":5334,"ĠRuman":5335,"ĠRiver":5336,"ĠRichi":5337,"ĠRPI":5338,"ĠRasm":5339,"ĠRankt":5340,"ĠRAW":5341,"ĠRPGSt":5342,"ĠRhodes":5343,"ĠRiMG":5344,"eda":5345,"edom":5346,"edsman":5347,"edonist":5348,"edoras":5349,"edasCapt":5350,"idon":5351,"adel":5352,"adian":5353,"adins":5354,"adster":5355,"admo":5356,"urf":5357,"url":5358,"ury":5359,"ural":5360,"urch":5361,"urate":5362,"urder":5363,"urang":5364,"urman":5365,"urviv":5366,"uritron":5367,"ĠDD":5368,"ĠDM":5369,"ĠDo":5370,"ĠDan":5371,"ĠDad":5372,"ĠDet":5373,"ĠDist":5374,"ĠDif":5375,"ĠDem":5376,"ĠDear":5377,"ĠDod":5378,"ĠDap":5379,"ĠDary":5380,"ĠDick":5381,"ĠDown":5382,"ĠDah":5383,"ĠDIP":5384,"ĠDign":5385,"ĠDuty":5386,"ĠDiana":5387,"ĠDiamond":5388,"ĠDAY":5389,"ĠDew":5390,"ĠDrif":5391,"ĠDomin":5392,"ĠDark":5393,"ĠDarin":5394,"ĠDogs":5395,"ĠDeputy":5396,"ĠDave":5397,"ĠDrum":5398,"ĠDwarf":5399,"ĠDirty":5400,"ĠDBV":5401,"ĠDepress":5402,"ĠDÃ¼ssel":5403,"ĠDatam":5404,"ĠDisgu":5405,"ĠDenim":5406,"ĠDingaling":5407,"lee":5408,"lez":5409,"lean":5410,"leers":5411,"leber":5412,"lease":5413,"lemuffin":5414,"ĠFE":5415,"ĠFo":5416,"ĠFro":5417,"ĠFem":5418,"ĠFod":5419,"ĠFall":5420,"ĠFash":5421,"ĠFue":5422,"ĠFell":5423,"ĠFort":5424,"ĠFore":5425,"ĠFoot":5426,"ĠFree":5427,"ĠFrans":5428,"ĠFace":5429,"ĠForm":5430,"ĠFOR":5431,"ĠFail":5432,"ĠFiiii":5433,"ĠFDA":5434,"ĠFURNO":5435,"ĠFlash":5436,"ĠFucks":5437,"ĠFinder":5438,"ĠFather":5439,"ĠFalco":5440,"ĠFelix":5441,"ĠFurman":5442,"star":5443,"sters":5444,"stack":5445,"staunch":5446,"stems":5447,"lact":5448,"lace":5449,"iaar":5450,"Ġbf":5451,"Ġby":5452,"Ġbun":5453,"Ġbir":5454,"Ġbay":5455,"Ġbast":5456,"Ġborn":5457,"Ġbeat":5458,"Ġbud":5459,"Ġbron":5460,"Ġbac":5461,"Ġbaby":5462,"Ġbring":5463,"Ġbah":5464,"Ġboop":5465,"Ġbeep":5466,"Ġbase":5467,"Ġbada":5468,"Ġbann":5469,"Ġbomb":5470,"Ġbrain":5471,"Ġbreak":5472,"Ġbeli":5473,"Ġbleh":5474,"Ġballs":5475,"Ġbuys":5476,"Ġbalanc":5477,"Ġbelong":5478,"owney":5479,"owjob":5480,"ĠNL":5481,"ĠNo":5482,"ĠNon":5483,"ĠNec":5484,"ĠNim":5485,"ĠNest":5486,"ĠNash":5487,"ĠNug":5488,"ĠNab":5489,"ĠNov":5490,"ĠNoth":5491,"ĠNation":5492,"ĠNeur":5493,"ĠNHS":5494,"ĠNmom":5495,"ĠNsis":5496,"ĠNingens":5497,"ofit":5498,"Ġdas":5499,"Ġdel":5500,"Ġdick":5501,"Ġdep":5502,"Ġdeal":5503,"Ġdead":5504,"Ġdism":5505,"Ġdude":5506,"Ġdeveloper":5507,"Ġdaught":5508,"Ġdirly":5509,"Ġdime":5510,"Ġdrone":5511,"Ġdesert":5512,"Ġdamage":5513,"Ġdrill":5514,"heed":5515,"heelst":5516,"oose":5517,"eton":5518,"etim":5519,"etric":5520,"etarian":5521,"uni":5522,"unter":5523,"unfortunately":5524,"Ġthan":5525,"Ġthen":5526,"Ġthing":5527,"Ġthose":5528,"Ġthank":5529,"Ġthrone":5530,"ĠIQ":5531,"ĠIV":5532,"ĠIX":5533,"ĠIt":5534,"ĠIron":5535,"ĠInt":5536,"ĠImm":5537,"ĠINC":5538,"ĠIWB":5539,"ĠImpar":5540,"ĠIverson":5541,"ĠBuff":5542,"ĠButl":5543,"ĠBukka":5544,"ando":5545,"andal":5546,"andist":5547,"andard":5548,"androm":5549,"andids":5550,"ice":5551,"icia":5552,"ician":5553,"ications":5554,"icleers":5555,"ilang":5556,"ilmm":5557,"iloDF":5558,"ilani":5559,"ĠLion":5560,"ĠLif":5561,"ĠLess":5562,"ĠLear":5563,"ĠLie":5564,"ĠLeat":5565,"ĠLock":5566,"ĠLine":5567,"ĠLike":5568,"ĠLov":5569,"ĠLevel":5570,"ĠLose":5571,"ĠLife":5572,"ĠLCP":5573,"ĠLives":5574,"ĠLiqu":5575,"ĠLondon":5576,"ĠLÃºcio":5577,"ĠLunch":5578,"ĠLoad":5579,"ĠLatit":5580,"Ġwon":5581,"Ġwar":5582,"Ġway":5583,"Ġwee":5584,"Ġwere":5585,"Ġwild":5586,"Ġwork":5587,"Ġwuff":5588,"Ġwitch":5589,"Ġwhere":5590,"Ġwake":5591,"Ġwann":5592,"Ġwarf":5593,"Ġwinn":5594,"Ġworst":5595,"Ġwalls":5596,"Ġwizard":5597,"Ġwinrate":5598,"Ġwreck":5599,"Ġwomen":5600,"irm":5601,"iro":5602,"irling":5603,"irits":5604,"ircut":5605,"irrel":5606,"user":5607,"users":5608,"usion":5609,"usens":5610,"uspic":5611,"Ġ(+":5612,"Ġ(âĹ¡":5613,"Ġsit":5614,"Ġset":5615,"Ġsum":5616,"Ġsaw":5617,"Ġsni":5618,"Ġsoon":5619,"Ġship":5620,"Ġsair":5621,"Ġsuper":5622,"Ġswitch":5623,"Ġscul":5624,"Ġseem":5625,"Ġspe":5626,"Ġsweat":5627,"Ġsound":5628,"Ġsave":5629,"Ġslow":5630,"Ġswear":5631,"Ġsugar":5632,"Ġseago":5633,"Ġslut":5634,"Ġspots":5635,"Ġsuic":5636,"Ġsyst":5637,"Ġserious":5638,"Ġsarcasm":5639,"Ġsurviv":5640,"Ġsiaar":5641,"Ġsuspic":5642,"isten":5643,"istry":5644,"ecialist":5645,"ecca":5646,"ecalmer":5647,"ĠWet":5648,"ĠWant":5649,"ĠWash":5650,"ĠWell":5651,"ĠWitt":5652,"ĠWatch":5653,"ĠWarm":5654,"ĠWisconsin":5655,"ĠWok":5656,"ĠWhaw":5657,"ĠWrang":5658,"ĠWheat":5659,"ĠWorst":5660,"ĠWithout":5661,"ĠWizard":5662,"ĠWZe":5663,"ĠWeird":5664,"ĠWhis":5665,"ĠWren":5666,"ĠWalsh":5667,"ĠWheelst":5668,"exim":5669,"exhale":5670,"exmaster":5671,"utback":5672,"Ġmr":5673,"Ġmam":5674,"Ġmit":5675,"Ġmee":5676,"Ġmys":5677,"Ġmust":5678,"Ġmore":5679,"Ġmov":5680,"Ġmake":5681,"Ġmax":5682,"Ġmeta":5683,"Ġmorale":5684,"Ġmarxist":5685,"Ġmurder":5686,"ĠOC":5687,"ĠOD":5688,"ĠOS":5689,"ĠOf":5690,"ĠOh":5691,"ĠOle":5692,"ĠOub":5693,"ĠOest":5694,"ĠODD":5695,"ĠObl":5696,"ĠOffic":5697,"ĠOFW":5698,"ĠObs":5699,"ĠOdin":5700,"ĠOpie":5701,"ĠOriginal":5702,"ĠOslo":5703,"ĠOvch":5704,"ĠOrioles":5705,"ĠOutback":5706,"Ġfar":5707,"Ġfight":5708,"Ġfud":5709,"Ġfuck":5710,"Ġfull":5711,"Ġfoot":5712,"Ġfru":5713,"Ġface":5714,"Ġfarm":5715,"Ġfair":5716,"Ġfool":5717,"Ġflu":5718,"Ġfreddiedyke":5719,"Ġfeel":5720,"Ġfukin":5721,"Ġfined":5722,"Ġfamily":5723,"Ġfedoras":5724,"Ġfilmm":5725,"hai":5726,"ĠYT":5727,"ĠYo":5728,"ĠYin":5729,"ĠYear":5730,"ĠYord":5731,"ĠYug":5732,"ĠYach":5733,"ĠYsel":5734,"ĠYew":5735,"ĠYasu":5736,"Ġaf":5737,"Ġain":5738,"Ġagg":5739,"Ġabout":5740,"Ġafter":5741,"Ġahh":5742,"Ġaway":5743,"Ġagend":5744,"Ġapart":5745,"coma":5746,"commer":5747,"tpicker":5748,"ĠKG":5749,"ĠKit":5750,"ĠKend":5751,"ĠKild":5752,"ĠKell":5753,"ĠKunk":5754,"ĠKore":5755,"ĠKrat":5756,"ĠKris":5757,"ĠKansas":5758,"ĠKING":5759,"ĠKite":5760,"ĠKirst":5761,"ĠKISS":5762,"ĠKarma":5763,"ĠKhu":5764,"ĠKuan":5765,"ĠKwame":5766,"ĠKershaw":5767,"ĠKomputer":5768,"ĠEAT":5769,"ĠEff":5770,"ĠEile":5771,"ĠEpi":5772,"ĠEGM":5773,"ĠEcho":5774,"eamish":5775,"imer":5776,"imit":5777,"imate":5778,"imus":5779,"imma":5780,"evo":5781,"eville":5782,"evoid":5783,"evitab":5784,"ionist":5785,"ionreps":5786,"Ġ12":5787,"Ġ19":5788,"Ġ100":5789,"Ġ117":5790,"Ġ180":5791,"Ġ1200":5792,"Ġ110":5793,"Ġ1700":5794,"Ġ148":5795,"Ġtheir":5796,"ogram":5797,"oglu":5798,"aya":5799,"ayhawks":5800,"ested":5801,"estone":5802,"keback":5803,"osper":5804,"osef":5805,"osaur":5806,"osaki":5807,"osurgery":5808,"Ġtil":5809,"Ġteam":5810,"Ġtech":5811,"Ġtext":5812,"Ġtick":5813,"Ġtea":5814,"Ġtread":5815,"Ġtook":5816,"Ġterm":5817,"Ġtwitch":5818,"Ġtomb":5819,"Ġtrying":5820,"Ġtrum":5821,"Ġtime":5822,"Ġtroll":5823,"Ġtemple":5824,"Ġtip":5825,"Ġtrue":5826,"Ġtanks":5827,"Ġtarik":5828,"Ġtolerate":5829,"agot":5830,"ague":5831,"agles":5832,"aginar":5833,"ĠUCF":5834,"ĠULT":5835,"ĠUNLV":5836,"ĠUgly":5837,"ĠUtama":5838,"ĠCarney":5839,"ĠCarmel":5840,"hie":5841,"hiana":5842,"Ġ25":5843,"Ġ217":5844,"Ġ280":5845,"Ġ256":5846,"Ġ253":5847,"Ġ245":5848,"Ġ235":5849,"Ġ278":5850,"Ġ240":5851,"Ġ2719":5852,"Ġ2670":5853,"entina":5854,"entee":5855,"entak":5856,"entire":5857,"entaur":5858,"entually":5859,"entures":5860,"vepl":5861,"Ġcum":5862,"Ġcere":5863,"Ġcolor":5864,"Ġciv":5865,"Ġcats":5866,"Ġcare":5867,"Ġcens":5868,"Ġcanc":5869,"Ġconf":5870,"Ġcane":5871,"Ġcyb":5872,"Ġcures":5873,"Ġcalled":5874,"Ġcatches":5875,"Ġceim":5876,"Ġcolon":5877,"Ġcrime":5878,"Ġclean":5879,"ampion":5880,"neck":5881,"necks":5882,"ðŁİĥ":5883,"ðŁĻĦ":5884,"Ġpre":5885,"Ġpast":5886,"Ġpost":5887,"Ġpaid":5888,"Ġpron":5889,"Ġpick":5890,"Ġpied":5891,"Ġpoin":5892,"Ġpair":5893,"Ġpray":5894,"Ġpress":5895,"Ġpaper":5896,"Ġpatches":5897,"Ġphil":5898,"Ġpiper":5899,"Ġplz":5900,"Ġpresent":5901,"Ġplease":5902,"Ġplace":5903,"Ġhat":5904,"Ġhate":5905,"Ġhad":5906,"Ġhim":5907,"Ġhood":5908,"Ġhyd":5909,"Ġhater":5910,"Ġhormon":5911,"Ġhedonist":5912,"Ġhunter":5913,"illusion":5914,"ĠVR":5915,"ĠVall":5916,"ĠVap":5917,"ĠVictor":5918,"ĠVTC":5919,"ĠVega":5920,"ĠVinyasa":5921,"ĠVoiv":5922,"ĠVeruna":5923,"ĠValor":5924,"ĠVelour":5925,"ĠVentak":5926,"Ġget":5927,"Ġgay":5928,"Ġgif":5929,"Ġgang":5930,"Ġgone":5931,"Ġgoon":5932,"Ġgreat":5933,"Ġgender":5934,"Ġgonn":5935,"Ġguy":5936,"Ġgreen":5937,"Ġgentle":5938,"Ġghost":5939,"Ġglitter":5940,"Ġgtfo":5941,"Ġgoose":5942,"ighton":5943,"roph":5944,"ifa":5945,"ifies":5946,"ifagot":5947,"anti":5948,"antoise":5949,"anticleers":5950,"emy":5951,"ement":5952,"ember":5953,"1745":5954,"Ġye":5955,"Ġyr":5956,"Ġyu":5957,"Ġyes":5958,"Ġyet":5959,"Ġinter":5960,"Ġinevitab":5961,"endo":5962,"endar":5963,"endent":5964,"Negat":5965,"Nearly":5966,"Neural":5967,"umm":5968,"umetric":5969,"Ġnut":5970,"Ġnature":5971,"Ġnerwh":5972,"Ġnarrow":5973,"astal":5974,"astic":5975,"rael":5976,"amazon":5977,"1118":5978,"1119":5979,"1109":5980,"1102":5981,"SUPER":5982,"Ġlan":5983,"Ġlast":5984,"Ġless":5985,"Ġlive":5986,"Ġlitt":5987,"Ġlook":5988,"Ġlogic":5989,"Ġlinks":5990,"Ġlisten":5991,"Ġlimit":5992,"dogwood":5993,"Ġ32":5994,"Ġ33":5995,"Ġ35":5996,"present":5997,"vert":5998,"verado":5999,"verting":6000,"essel":6001,"essed":6002,"essary":6003,"essPo":6004,"Chow":6005,"Chron":6006,"Chase":6007,"Chelse":6008,"Church":6009,"Champion":6010,"PSG":6011,"earcher":6012,"ĠJose":6013,"ĠJFK":6014,"ĠJames":6015,"ĠJune":6016,"ĠJaguars":6017,"ĠJhild":6018,"ĠJenrag":6019,"ĠJayhawks":6020,"ĠJosef":6021,"ansthat":6022,"anschluss":6023,"ĠBucket":6024,"CFOP":6025,"Southern":6026,"TheTh":6027,"Theoc":6028,"TheGreat":6029,"oding":6030,"ako":6031,"aks":6032,"aku":6033,"aker":6034,"ainer":6035,"ctoid":6036,"Ġissu":6037,"1693":6038,"1644":6039,"1608":6040,"boy":6041,"boot":6042,"board":6043,"echo":6044,"echoic":6045,"76719":6046,"7646":6047,"ggets":6048,"artz":6049,"201":6050,"2017":6051,"2015":6052,"2018":6053,"2014":6054,"2062":6055,"Ġ41":6056,"Ġ43":6057,"Ġ4430":6058,"Ġ4770":6059,"Ġ4460":6060,"Steam":6061,"Stop":6062,"Stock":6063,"Stone":6064,"Steven":6065,"Stenh":6066,"Stealth":6067,"Standard":6068,"Stirling":6069,"ape":6070,"apnet":6071,"apolis":6072,"iance":6073,"ianique":6074,"iances":6075,"ianapolis":6076,"mysel":6077,"myport":6078,"mypoodle":6079,"cep":6080,"ceives":6081,"onso":6082,"amefully":6083,"Ġones":6084,"ĠUnion":6085,"ĠUnder":6086,"ĠUncle":6087,"ĠUniversity":6088,"ĠUnfortunately":6089,"ĠUnlim":6090,"Third":6091,"Three":6092,"Think":6093,"USC":6094,"ATSE":6095,"INST":6096,"INCT":6097,"INTJ":6098,"ffins":6099,"fflemuffin":6100,"ndb":6101,"ndrom":6102,"netanschluss":6103,"oplif":6104,"ockie":6105,"tsug":6106,"tsman":6107,"ï¼°ï¼²ï¼¥ï¼³ï¼¥ï¼®ï¼´":6108,"ï¼ģðŁĮ":6109,"ĠChavis":6110,"ĠFCS":6111,"1521":6112,"1542":6113,"ular":6114,"ulous":6115,"Ġ52":6116,"Ġ53":6117,"Ġ54":6118,"Ġ56":6119,"Ġ57":6120,"Ġ521":6121,"Ġ5430":6122,"Ġ5000":6123,"Ġ5820":6124,"Ġ60":6125,"Ġ64":6126,"Ġ67":6127,"Ġ68":6128,"Ġ6600":6129,"onds":6130,"ĠSpain":6131,"ĠSpud":6132,"ĠSphere":6133,"ĠSpinn":6134,"ĠSpeed":6135,"ĠSpitter":6136,"ĠSpinetic":6137,"ĠSpoil":6138,"ĠSpiro":6139,"ĠSpecialist":6140,"ĠReds":6141,"ĠReddit":6142,"ĠRedraft":6143,"223":6144,"2249":6145,"2247":6146,"2263":6147,"2251":6148,"gins":6149,"ither":6150,"tertain":6151,"terested":6152,"ugs":6153,"ugame":6154,"ugby":6155,"âĻ¥ï¸ı":6156,"onger":6157,"ĠThat":6158,"ĠThous":6159,"ĠThought":6160,"ĠTeams":6161,"arding":6162,"ardian":6163,"everything":6164,"181":6165,"18480":6166,"elling":6167,"quet":6168,"quire":6169,"sei":6170,"Ġ90":6171,"Ġ93":6172,"Ġ96":6173,"Ġ900":6174,"Ġ970":6175,"Ġ950":6176,"registry":6177,"Ġformed":6178,"121":6179,"123":6180,"125":6181,"12826":6182,"14593":6183,"Clear":6184,"CleoBest":6185,"ostrooper":6186,"âĹĻ":6187,"Ġreal":6188,"Ġreport":6189,"Ġreward":6190,"Ġrelations":6191,"Ġrepet":6192,"Ġreasons":6193,"Ġrepresent":6194,"Ġreceives":6195,"Ġrequire":6196,"asscock":6197,"ĠAmp":6198,"ĠAmos":6199,"ĠAmbass":6200,"Alaska":6201,"Altern":6202,"Aloha":6203,"Also":6204,"Aleria":6205,"Alola":6206,"aven":6207,"avia":6208,"ege":6209,"egant":6210,"egade":6211,"egiance":6212,"uda":6213,"udger":6214,"udios":6215,"inez":6216,"ĠChrist":6217,"ĠCharl":6218,"ĠChanticleers":6219,"adoVladi":6220,"etsy":6221,"Ġ105":6222,"Ġ1070":6223,"Ġnote":6224,"1911":6225,"1993":6226,"1997":6227,"5070":6228,"5093":6229,"932":6230,"9314":6231,"9330":6232,"9390":6233,"9384":6234,"GBA":6235,"Spain":6236,"Space":6237,"Sports":6238,"Splitt":6239,"Spirits":6240,"Spelling":6241,"TeamBok":6242,"TeamTir":6243,"ikaku":6244,"ivet":6245,"ivist":6246,"ivion":6247,"ortality":6248,"ortfu":6249,"itty":6250,"ĠDukes":6251,"Ġbeen":6252,"Ġbeers":6253,"Ġbeing":6254,"Ġbeauty":6255,"Ġbefore":6256,"032":6257,"0361":6258,"coal":6259,"coons":6260,"cooled":6261,"deron":6262,"ryWa":6263,"Ġ88":6264,"Ġkid":6265,"Ġkill":6266,"Ġkids":6267,"Ġkind":6268,"Ġkilling":6269,"Ġkomment":6270,"Ġkurang":6271,"Ġram":6272,"Ġrate":6273,"Ġright":6274,"Ġrage":6275,"Ġrpgha":6276,"Ġreservation":6277,"Ġrugby":6278,"ange":6279,"anghai":6280,"ĠThem":6281,"ĠThey":6282,"ĠTheology":6283,"ĠMajest":6284,"ĠMaitnance":6285,"ĠPruss":6286,"ĠPresident":6287,"ĠPromise":6288,"ĠProfit":6289,"ĠReal":6290,"ĠReign":6291,"ĠRefer":6292,"ĠReaper":6293,"ĠReformer":6294,"ĠRepub":6295,"ĠReimer":6296,"ionship":6297,"Ġ2019":6298,"2000":6299,"2008":6300,"4460":6301,"4464":6302,"44424":6303,"44616":6304,"abeth":6305,"ableB":6306,"occo":6307,"perer":6308,"perly":6309,"perium":6310,"teh":6311,"ĠAsh":6312,"ĠAsia":6313,"ĠAsian":6314,"ĠAssas":6315,"ĠEnclave":6316,"ĠEnVyUs":6317,"ĠEngLit":6318,"ĠEntertain":6319,"1014":6320,"1079":6321,"1095":6322,"DRG":6323,"MTF":6324,"icking":6325,"mancer":6326,"Ġhaha":6327,"Ġhaircut":6328,"ensifies":6329,"ector":6330,"135":6331,"2626":6332,"2609":6333,"eps":6334,"ependent":6335,"tyMat":6336,"Ġvia":6337,"Ġvale":6338,"Ġvoic":6339,"Ġvoted":6340,"Ġventures":6341,"Ġvessel":6342,"Ġvndb":6343,"Ġvector":6344,"Ġheart":6345,"Ġhealing":6346,"ĠBlaise":6347,"Arist":6348,"ArcMar":6349,"Arisa":6350,"OUP":6351,"Press":6352,"Proud":6353,"Protect":6354,"Profess":6355,"Prusa":6356,"Program":6357,"Prosper":6358,"TOS":6359,"acles":6360,"irex":6361,"iremont":6362,"ĠZona":6363,"ĠZeal":6364,"ĠZeta":6365,"ĠZips":6366,"onair":6367,"owned":6368,"3779":6369,"37422":6370,"53010":6371,"MANS":6372,"Marth":6373,"TRV":6374,"TRAL":6375,"TROZ":6376,"Waifu":6377,"berwol":6378,"hates":6379,"hattan":6380,"moner":6381,"ovo":6382,"ovenia":6383,"ĠXB":6384,"ĠXT":6385,"ĠXLII":6386,"ĠXcali":6387,"Ġjob":6388,"Ġjoy":6389,"Ġjoin":6390,"Ġjiu":6391,"Ġchamp":6392,"Ġchase":6393,"Ġcheque":6394,"Ġchlam":6395,"Ġcharades":6396,"ĠWolfpack":6397,"Ġ1620":6398,"7656119818480":6399,"7656119814593":6400,"765611982626":6401,"2480":6402,"Allston":6403,"AllTheTh":6404,"Allegiance":6405,"England":6406,"Enclave":6407,"EnVyUs":6408,"KET":6409,"Manly":6410,"Manhattan":6411,"Model":6412,"efirex":6413,"herry":6414,"hernecks":6415,"izabeth":6416,"Ġlaid":6417,"ĠScotia":6418,"ĠComp":6419,"ĠComets":6420,"ĠComexim":6421,"Ġdonator":6422,"Ġdonuts":6423,"ĠUSB":6424,"Ġcloth":6425,"Ġclose":6426,"Ġclicking":6427,"ĠVolvo":6428,"ĠChampionship":6429,"878":6430,"8787":6431,"8734":6432,"ALL":6433,"ALIGN":6434,"ISFP":6435,"Nohrian":6436,"Shock":6437,"Shelf":6438,"Shinji":6439,"ShitPost":6440,"Shamefully":6441,"Shoplif":6442,"Shitty":6443,"Shanghai":6444,"University":6445,"Unnec":6446,"Warring":6447,"Warlord":6448,"Warlock":6449,"Warrior":6450,"phy":6451,"phone":6452,"phins":6453,"ringdon":6454,"upid":6455,"vancem":6456,"âľ§*ãĢ":6457,"Ġask":6458,"Ġasian":6459,"ational":6460,"ĠAny":6461,"ĠAnthony":6462,"ĠArch":6463,"ĠArts":6464,"ĠArrow":6465,"ĠArcher":6466,"ĠArtist":6467,"ĠAllen":6468,"ĠAlliances":6469,"USAF":6470,"!!?":6471,"5217":6472,"5280":6473,"5232":6474,"6969":6475,"9054":6476,"ARTIS":6477,"Bethe":6478,"Beware":6479,"Beagles":6480,"Catmand":6481,"DEN":6482,"DESER":6483,"Jamo":6484,"Jamal":6485,"Plat":6486,"Patrick":6487,"Scout":6488,"Scae":6489,"Scorch":6490,"Scape":6491,"TED":6492,"ahad":6493,"acter":6494,"actic":6495,"ructoid":6496,"shop":6497,"shortfu":6498,"Ġ+%":6499,"Ġ710":6500,"Ġ7700":6501,"Ġstand":6502,"Ġstage":6503,"Ġstudios":6504,"Ġstupid":6505,"inki":6506,"ĠParlours":6507,"ĠParamed":6508,"elblot":6509,"ĠHunt":6510,"ĠHuntsman":6511,"letec":6512,"Ġshit":6513,"Ġshut":6514,"Ġshades":6515,"4550":6516,"4914":6517,"AMD":6518,"ANT":6519,"APY":6520,"APPL":6521,"Grange":6522,"HERFU":6523,"IPEDE":6524,"Mini":6525,"Mining":6526,"Mindl":6527,"Media":6528,"NDP":6529,"Rocket":6530,"___":6531,"hnis":6532,"iiiine":6533,"ioShelf":6534,"ixGlobal":6535,"oxx":6536,"ydia":6537,"Ġorrust":6538,"ĠðŁįĢ":6539,"ĠðŁĺĤðŁĳ":6540,"aneers":6541,"atoGP":6542,"archs":6543,"archOb":6544,"ĠBeer":6545,"ĠBeing":6546,"ĠBegins":6547,"ĠBrown":6548,"ĠBrigade":6549,"ĠModerators":6550,"ĠPalpat":6551,"ĠPaladins":6552,"ĠHerc":6553,"ĠHero":6554,"ĠHerder":6555,"ĠHeracles":6556,"ĠDeviant":6557,"Ġbless":6558,"Ġblob":6559,"Ġblame":6560,"Ġblowjob":6561,"ĠEli":6562,"Ġ3093":6563,"Ġ3024":6564,"Ġ3061":6565,"ĠJoJo":6566,"ĠJoko":6567,"Ġhappy":6568,"Ġhappens":6569,"Ġhappiness":6570,"3315":6571,"3384":6572,"357":6573,"35913":6574,"6596":6575,"7418":6576,"7950":6577,"BOS":6578,"BONAP":6579,"BOATSE":6580,"Bullish":6581,"DDevoid":6582,"Dragons":6583,"Dragonair":6584,"Extin":6585,"ICK":6586,"ICKET":6587,"ICANT":6588,"Infam":6589,"Instinct":6590,"InRev":6591,"Invest":6592,"Interested":6593,"OLD":6594,"OLE":6595,"SCH":6596,"Skully":6597,"Skyrim":6598,"Samey":6599,"Wests":6600,"blr":6601,"blestone":6602,"blonds":6603,"ccandids":6604,"ccaneers":6605,"forming":6606,"gerBot":6607,"ibrand":6608,"ibald":6609,"lingual":6610,"piring":6611,"selor":6612,"ãĢİ":6613,"ãĢı":6614,"Ġeh":6615,"Ġeither":6616,"ĠeSports":6617,"Ġenmes":6618,"Ġenvir":6619,"Ġnewbie":6620,"Ġquotes":6621,"Ġquartz":6622,"ĠâĢ¢":6623,"ĠâĢĶ":6624,"ermint":6625,"ĠShockie":6626,"ĠTerriers":6627,"ĠBEG":6628,"ĠATTAAAA":6629,"olutely":6630,"ĠProthrom":6631,"ĠHelp":6632,"ĠLeap":6633,"ĠLeÃ³n":6634,"ĠLeoric":6635,"ĠLeilani":6636,"ĠLeague":6637,"Ġwhirly":6638,"ĠEss":6639,"Ġproject":6640,"Ġpropag":6641,"Ġproperly":6642,"Ġgoing":6643,"Ġgoals":6644,"racies":6645,"raved":6646,"ooooooooo":6647,"765611982360":6648,"76561198276719":6649,"76561198244616":6650,"0621":6651,"0627":6652,"2870":6653,"2844":6654,"6897":6655,"843":6656,"9903":6657,"ASRock":6658,"ASPD":6659,"Android":6660,"Balasar":6661,"Balefirex":6662,"BestGirl":6663,"Brock":6664,"Broadmo":6665,"Brokeback":6666,"Bronze":6667,"Cloak":6668,"Clowney":6669,"CHIEF":6670,"ENgineer":6671,"EUW":6672,"HHH":6673,"Imaginar":6674,"Imperium":6675,"India":6676,"Indianapolis":6677,"KBJC":6678,"LLL":6679,"LLY":6680,"Luxray":6681,"Only":6682,"Online":6683,"Orbit":6684,"Ortega":6685,"Reds":6686,"Reddit":6687,"Rednex":6688,"Second":6689,"Secular":6690,"Tip":6691,"Toone":6692,"Totally":6693,"Totality":6694,"Whatz":6695,"YYYPE":6696,"Young":6697,"aijan":6698,"ault":6699,"badil":6700,"bleh":6701,"fiber":6702,"field":6703,"jiit":6704,"kyDang":6705,"kinx":6706,"kinosaur":6707,"kintsug":6708,"ploding":6709,"rami":6710,"ÌĹÌ¼":6711,"ÌĹÌŁÍī":6712,"ãĤ²æľ":6713,"ãĤĵãģ":6714,"Ġzone":6715,"Ġzanpak":6716,"Ġzaman":6717,"Ġanyway":6718,"Ġanymore":6719,"erbury":6720,"erbaijan":6721,"ĠSTILL":6722,"ĠSTUMP":6723,"ĠSeager":6724,"ĠSeedsman":6725,"ĠSystems":6726,"ĠSyndrom":6727,"ĠSouthwestern":6728,"ĠSheri":6729,"arfs":6730,"ismatic":6731,"ĠAlun":6732,"ĠAlonso":6733,"ĠMcBast":6734,"ĠMcNasty":6735,"ĠMcHot":6736,"ĠMcPoy":6737,"ĠMaddie":6738,"ĠMadison":6739,"ĠPlus":6740,"ĠPloop":6741,"ĠPlatinum":6742,"ĠPlastic":6743,"ĠPowerwall":6744,"ominational":6745,"ĠDraghic":6746,"ĠFrancisco":6747,"ĠFresh":6748,"offs":6749,"Ġdrugs":6750,"Ġdrowned":6751,"ĠInstinct":6752,"ĠLouisville":6753,"Ġwrestling":6754,"Ġmanis":6755,"Ġmanager":6756,"ĠExit":6757,"ĠExozo":6758,"ðŁĮŁ":6759,"Ġheroes":6760,"Ġinto":6761,"Ġintrins":6762,"Ġintenst":6763,"Ġintensifies":6764,"Ġ408":6765,"Ġ4012":6766,"ophant":6767,"Alpes":6768,"ĠAspirin":6769,"76561198092":6770,"765611980728":6771,"765611980978":6772,"76561198035913":6773,"Ġhello":6774,"âĢ¿âĹ¡":6775,"Bullseye":6776,"0576":6777,"0598":6778,"2353":6779,"3969":6780,"39932":6781,"4837":6782,"4835":6783,"4306":6784,"541":6785,"5473":6786,"6419":6787,"7857":6788,"9590":6789,"95878":6790,"ABUFF":6791,"ACC":6792,"ACK":6793,"ACentaur":6794,"Autarchist":6795,"Active":6796,"BIG":6797,"BLACK":6798,"Brighton":6799,"Colts":6800,"Clairemont":6801,"Confeder":6802,"Disney":6803,"Discord":6804,"Disillusion":6805,"Former":6806,"Fucking":6807,"Fuckomg":6808,"GWS":6809,"HUB":6810,"HUMANS":6811,"Lumia":6812,"Luminos":6813,"Lumaya":6814,"Legit":6815,"Legal":6816,"Legacy":6817,"Meridian":6818,"Merfol":6819,"Mercia":6820,"Massive":6821,"NIEDR":6822,"NZL":6823,"Ninja":6824,"Officer":6825,"PCOS":6826,"Police":6827,"Process":6828,"Produ":6829,"Playoffs":6830,"PokeScape":6831,"RIMA":6832,"Ravenwing":6833,"Realm":6834,"SBFCre":6835,"Shape":6836,"Shafting":6837,"Shachath":6838,"Subaki":6839,"TCU":6840,"TransM":6841,"Transgender":6842,"Transylvania":6843,"Vyn":6844,"XXX":6845,"apple":6846,"ething":6847,"ethics":6848,"forty":6849,"jected":6850,"jectivist":6851,"minarchist":6852,"ptfo":6853,"ressive":6854,"sheart":6855,"trauate":6856,"upporter":6857,"ĠxD":6858,"Ġxboxgladiator":6859,"Ġlegal":6860,"Ġund":6861,"Ġuntil":6862,"Ġeats":6863,"Ġeaten":6864,"Ġï¼°ï¼²ï¼¥ï¼³ï¼¥ï¼®ï¼´":6865,"Ġï¼¤ï¼":6866,"Ġï¼´ï¼":6867,"Ġâľ«":6868,"ĠâľĪ":6869,"Ġâľ¿(":6870,"ĠQueen":6871,"inding":6872,"innati":6873,"ĠSwans":6874,"ĠSword":6875,"ĠSweet":6876,"ĠShaft":6877,"ĠSubreddit":6878,"ĠSubaru":6879,"ĠSublingual":6880,"ĠCanIex":6881,"ĠCanaan":6882,"ĠCanadian":6883,"ĠCalifornia":6884,"ĠCalendar":6885,"ĠCalderon":6886,"ĠCanyon":6887,"ĠCivilization":6888,"ĠBias":6889,"ĠGenesis":6890,"itional":6891,"ĠMeribald":6892,"ĠMagnolia":6893,"ĠMemes":6894,"ĠMember":6895,"ĠMemphis":6896,"ĠMaker":6897,"rima":6898,"ĠHeaven":6899,"ĠHarry":6900,"ĠReservation":6901,"ĠRespect":6902,"ĠResearcher":6903,"ĠDelta":6904,"ĠDeliver":6905,"ĠFirebear":6906,"Ġdiehard":6907,"ĠIdiot":6908,"ĠIndependent":6909,"irsti":6910,"Ġsaying":6911,"ĠKiller":6912,"ĠKilled":6913,"ĠKillian":6914,"ĠEvo":6915,"ĠEvil":6916,"ĠEventually":6917,"ĠEagletec":6918,"Ġcreo":6919,"Ġcreator":6920,"Ġcreated":6921,"Ġcontact":6922,"Ġcontroll":6923,"Ġcontinues":6924,"ðŁĴ¯ðŁĴ¯":6925,"Ġgirls":6926,"umbum":6927,"Ġnothin":6928,"Ġlongness":6929,"pressmysel":6930,"Charleston":6931,"odesian":6932,"odeship":6933,"ATED":6934,"âĻ¡(":6935,"âĻ¡âľ§*ãĢ":6936,"ĠAmerica":6937,"ĠAminu":6938,"SpanB":6939,"ĠMaximus":6940,"ĠPrinceton":6941,"ĠProtectionist":6942,"ĠProfessional":6943,"Ġheadcel":6944,"ðŁĶĶðŁĶĶðŁĶĶ":6945,"Markarth":6946,"ĠAngeles":6947,"AAAAAAAAAAAAAAAAAAAAAAAAAAAAAAAA":6948,"Bloodhound":6949,"DragonNinja":6950,"Ġneeds":6951,"ravenous":6952,"Johnny":6953,"Lukasz":6954,"ðŁĲĬðŁĲĬðŁĲĬðŁĲĬ":6955,"Ġrobe":6956,"02522":6957,"1173":6958,"1177":6959,"255":6960,"2744424":6961,"294":6962,"3152":6963,"3153":6964,"4012":6965,"4249":6966,"666":6967,"8263":6968,"8531":6969,"8534":6970,"Anarco":6971,"AnarchOb":6972,"Aspiring":6973,"Azura":6974,"Azerbaijan":6975,"Adamantoise":6976,"Absentee":6977,"Absolutely":6978,"Bucks":6979,"Buccaneers":6980,"BigBall":6981,"BuffServ":6982,"Bringin":6983,"BringBack":6984,"CHO":6985,"CKING":6986,"Caramel":6987,"Challenger":6988,"Chaostrooper":6989,"ChileB":6990,"Chivas":6991,"Connor":6992,"Connecticut":6993,"Captain":6994,"Daron":6995,"Darrell":6996,"Digital":6997,"DigixGlobal":6998,"Devon":6999,"Demonhead":7000,"Demolition":7001,"Dangerous":7002,"Doesn":7003,"Emile":7004,"Empress":7005,"FIU":7006,"FULLY":7007,"Farouq":7008,"Farringdon":7009,"Famine":7010,"Famous":7011,"GSW":7012,"Greater":7013,"Howland":7014,"Hunter":7015,"Hunta":7016,"Julia":7017,"Julianique":7018,"Katrya":7019,"Kathiana":7020,"LETROZ":7021,"Loons":7022,"Loka":7023,"Looking":7024,"McDream":7025,"McMurr":7026,"MrDest":7027,"MattyMat":7028,"Malden":7029,"Malravenous":7030,"Manda":7031,"Mandelblot":7032,"NJD":7033,"Nightly":7034,"Nightcap":7035,"Obviously":7036,"Olive":7037,"Olivet":7038,"Overeem":7039,"Overlord":7040,"Octavia":7041,"PEKKA":7042,"PHYS":7043,"RLWC":7044,"RhÃ´ne":7045,"Rhodesian":7046,"Roark":7047,"Roadster":7048,"Renegade":7049,"Renault":7050,"SGQDX":7051,"Sludger":7052,"Slovenia":7053,"Seris":7054,"Serath":7055,"Senor":7056,"Silver":7057,"SilkyDang":7058,"Squall":7059,"Squirrel":7060,"Supergu":7061,"Tenor":7062,"Tenors":7063,"Tension":7064,"Tenshi":7065,"Valor":7066,"Valentina":7067,"cuxs":7068,"denominational":7069,"fwithout":7070,"ferred":7071,"folio":7072,"galactic":7073,"hvgo":7074,"hvgoo":7075,"iatric":7076,"looks":7077,"lifechoic":7078,"linebreak":7079,"likeaf":7080,"proves":7081,"projected":7082,"tusing":7083,"virate":7084,"when":7085,"xsherry":7086,"ybumbum":7087,"yoz":7088,"§å¿ľ":7089,"Ì¥Ìĺ":7090,"ÑģÑģ":7091,"å¥³ãĤ²æľ":7092,"ï½¡)":7093,"ï½¡âĹķâĢ¿âĹķ":7094,"ĠuBPD":7095,"ĠÃ¥re":7096,"ĠÃ§Ä±":7097,"Ġalone":7098,"Ġalways":7099,"Ġexcell":7100,"Ġexploding":7101,"Ġimt":7102,"Ġimproves":7103,"Ġanime":7104,"Ġanimations":7105,"ĠSmol":7106,"ĠSmith":7107,"ĠScholes":7108,"ĠSchool":7109,"ĠSecret":7110,"ĠSecuritron":7111,"ĠSentra":7112,"ĠSentinels":7113,"ĠSquare":7114,"ĠSquier":7115,"ĠSeaboard":7116,"ĠSnackbar":7117,"ĠCAPS":7118,"ĠCRICKET":7119,"ĠClub":7120,"ĠCloud":7121,"ĠCoastal":7122,"ĠCateus":7123,"ĠCategor":7124,"ĠCruzes":7125,"ĠCruiser":7126,"ĠConnecticut":7127,"ĠConnoiss":7128,"ĠBackpack":7129,"ĠBroncos":7130,"ĠBronchos":7131,"ĠBeau":7132,"ĠBeach":7133,"ĠAdelaide":7134,"ĠAdvancem":7135,"ouns":7136,"ĠGlove":7137,"ĠGlasscock":7138,"ĠGoal":7139,"ĠGemthus":7140,"ĠGemilang":7141,"ĠMonster":7142,"ĠMonarchs":7143,"ĠMushro":7144,"ĠMusician":7145,"ĠPrice":7146,"ĠPrivate":7147,"ĠPastrami":7148,"ĠPlayed":7149,"ĠPlayoff":7150,"ĠPersonal":7151,"ĠPittsburgh":7152,"eldreem":7153,"ĠHardin":7154,"ĠHarden":7155,"ĠHumanist":7156,"ĠRussia":7157,"ĠRussian":7158,"ĠDonor":7159,"ĠDavid":7160,"ĠDavichi":7161,"ĠForester":7162,"ĠForward":7163,"Ġboi":7164,"Ġboots":7165,"ĠNCAA":7166,"heads":7167,"heartbeat":7168,"ĠButton":7169,"ĠLvl":7170,"ĠLeaf":7171,"ĠLeader":7172,"Ġscores":7173,"Ġscarfs":7174,"Ġsexual":7175,"Ġshall":7176,"Ġshave":7177,"Ġsubreddit":7178,"Ġsucking":7179,"ĠWarriors":7180,"ĠWardens":7181,"ĠWaterloo":7182,"ĠWatercooled":7183,"Ġmeme":7184,"Ġmemes":7185,"Ġmonths":7186,"Ġfrog":7187,"Ġfrancisco":7188,"Ġfanboy":7189,"Ġapps":7190,"Ġapparent":7191,"ĠKeikaku":7192,"ĠKeirsti":7193,"ĠEUW":7194,"ĠENERGY":7195,"ĠENERGI":7196,"Ġ1500":7197,"Ġ1440":7198,"ogical":7199,"Ġ2001":7200,"Ġ2008":7201,"Ġcouldn":7202,"ðŁįº":7203,"ðŁįį":7204,"ðŁĳģ":7205,"Ġpercent":7206,"Ġpervert":7207,"Ġhuge":7208,"Ġgroup":7209,"Ġgrinding":7210,"ĠGameDev":7211,"Ġ4270":7212,"ĠThunderfuck":7213,"uddigon":7214,"ĠCharacter":7215,"ĠCharismatic":7216,"1981":7217,"1985":7218,"ĠMacDuff":7219,"ĠEngineering":7220,"Arsenal":7221,"Artest":7222,"ArtEE":7223,"Ġjackin":7224,"Ġjackass":7225,"Ġlaugh":7226,"Ġlaughing":7227,"ĠCommunity":7228,"ĠCommunications":7229,"ĠUSAF":7230,"âľ¿)":7231,"ĠðŁĴį":7232,"ĠðŁĴľ:":7233,"ĠBrightside":7234,"ĠBrightwater":7235,"ĠJohnson":7236,"ooooooooooooooooooooooooo":7237,"DoctorFa":7238,"Lynn":7239,"Secretly":7240,"ĠInternetanschluss":7241,"ĠIntergalactic":7242,"Nintendon":7243,"Nintendo":7244,"ĠMagicForce":7245,"Apostol":7246,"Apostate":7247,"European":7248,"Friendly":7249,"FriendCod":7250,"æķĻå¤§å":7251,"æķĻè¡ĵ":7252,"ĠCulture":7253,"0871":7254,"2165":7255,"2933":7256,"2441":7257,"2375":7258,"3637":7259,"3196":7260,"3447":7261,"3883":7262,"4936":7263,"4098":7264,"5129":7265,"5571":7266,"6799":7267,"86592":7268,"9531":7269,"9457":7270,":^)":7271,";âĹī))":7272,"??!!?":7273,"AKKE":7274,"Amber":7275,"AvaÃ":7276,"Appreci":7277,"Above":7278,"AudioShelf":7279,"AMAzl":7280,"America":7281,"Antifa":7282,"Accurate":7283,"Biomasse":7284,"Banquet":7285,"Brexit":7286,"Badlifechoic":7287,"Bofo":7288,"Burnt":7289,"BearableB":7290,"Bugeye":7291,"Bangsa":7292,"Bunkyo":7293,"Brady":7294,"Boyz":7295,"Burger":7296,"Breathing":7297,"Brisbane":7298,"Bankvie":7299,"BVEoOq":7300,"ButtBudd":7301,"Cirie":7302,"Ceramic":7303,"Converting":7304,"Corey":7305,"CamiloDF":7306,"Casual":7307,"Circle":7308,"Cutest":7309,"Canterbury":7310,"Castile":7311,"Cakes":7312,"Cobblestone":7313,"Conditional":7314,"Clayton":7315,"Cincinnati":7316,"Current":7317,"Casua":7318,"Cobalt":7319,"Counselor":7320,"Crafty":7321,"CENTIPEDE":7322,"Decker":7323,"Druddigon":7324,"Duke":7325,"Dvua":7326,"Double":7327,"Dolphins":7328,"Delthea":7329,"Durandal":7330,"Drakor":7331,"Dodgers":7332,"Dlorin":7333,"DOTABUFF":7334,"Downvot":7335,"Donnel":7336,"DVeritas":7337,"Dominique":7338,"DeemSle":7339,"Destroyer":7340,"Distinguish":7341,"DCents":7342,"ESSRY":7343,"EVER":7344,"Econ":7345,"Elizabeth":7346,"EvE":7347,"Earnhard":7348,"Eggy":7349,"Effie":7350,"Estonia":7351,"ENDER":7352,"Errorpl":7353,"Eternal":7354,"France":7355,"Fuels":7356,"Finland":7357,"Freedom":7358,"Felicia":7359,"Fircoal":7360,"Future":7361,"Fortuna":7362,"Fernando":7363,"Foreign":7364,"Feminist":7365,"Faux":7366,"Fluffybumbum":7367,"GROUP":7368,"Guard":7369,"German":7370,"Gino":7371,"Galactus":7372,"Gaporig":7373,"Grymlo":7374,"Gabite":7375,"Girdles":7376,"Gupe":7377,"GATITOS":7378,"Gentleman":7379,"Hoarding":7380,"Hatkid":7381,"Hamlin":7382,"Humor":7383,"Hornets":7384,"Hobby":7385,"Helsinki":7386,"Healer":7387,"Highly":7388,"Herbaliz":7389,"Humanoid":7390,"Happy":7391,"Hierophant":7392,"IMATE":7393,"IUI":7394,"IVATE":7395,"Irvan":7396,"Israel":7397,"Ireland":7398,"Intersex":7399,"Jeremy":7400,"Jarrett":7401,"Jaymes":7402,"Jessica":7403,"Jalloon":7404,"Jazz":7405,"JASON":7406,"Kensei":7407,"Kasper":7408,"Kurosaki":7409,"Kirito":7410,"Khajiit":7411,"Kayla":7412,"Kontext":7413,"KOTH":7414,"Kikkeli":7415,"Kahne":7416,"Kappa":7417,"Leica":7418,"Linears":7419,"Lesbian":7420,"Lisy":7421,"Lenin":7422,"Laslow":7423,"Limburg":7424,"Lagrima":7425,"LINE":7426,"Lotsa":7427,"LDREN":7428,"Leave":7429,"Lincoln":7430,"Linde":7431,"Lunatic":7432,"LOVELY":7433,"MRP":7434,"Morocco":7435,"MotoG":7436,"Madam":7437,"Mexico":7438,"Mogi":7439,"Maybe":7440,"Memphis":7441,"Monterrey":7442,"Martin":7443,"Maple":7444,"MOTHERFU":7445,"Machine":7446,"Major":7447,"MakiBestGirl":7448,"Maintainer":7449,"Nuggets":7450,"Nyx":7451,"Normy":7452,"Nexus":7453,"Nobody":7454,"Nonsupporter":7455,"Nova":7456,"NEUTRAL":7457,"Nomineret":7458,"NNID":7459,"Normal":7460,"NudeWars":7461,"Odger":7462,"Outsider":7463,"Performing":7464,"PanÄį":7465,"Preferred":7466,"PotatoGP":7467,"Pleb":7468,"Panda":7469,"Pirate":7470,"Pistons":7471,"Pantsu":7472,"Pulse":7473,"PardoFC":7474,"Pegasus":7475,"Pineapple":7476,"Pirelli":7477,"POLYCH":7478,"Pachuca":7479,"Python":7480,"Pittsburgh":7481,"QUICK":7482,"RUTHL":7483,"Reboot":7484,"Roman":7485,"Roseville":7486,"Rashford":7487,"Rondooooooooooooooooooooooooo":7488,"Rawr":7489,"Riksv":7490,"Rippa":7491,"Royal":7492,"Ready":7493,"Rebecca":7494,"RIPTPP":7495,"Raffle":7496,"ROVED":7497,"ROBOTHUMANS":7498,"SWUN":7499,"Smurf":7500,"Soares":7501,"SyFPS":7502,"Sinon":7503,"Sometim":7504,"Surrey":7505,"Slap":7506,"Shiban":7507,"Santos":7508,"Sakura":7509,"SortaPog":7510,"SMANA":7511,"Seahawks":7512,"Serbia":7513,"SHURIMA":7514,"Somerville":7515,"SKYLINE":7516,"Twinbl":7517,"Tidus":7518,"Turtle":7519,"Timberwol":7520,"Teeth":7521,"Tribune":7522,"Trader":7523,"TAHZ":7524,"Truly":7525,"Triumvirate":7526,"UOTZE":7527,"Ultimate":7528,"UselessPo":7529,"UCLA":7530,"UNITED":7531,"UPHOLD":7532,"VladoVladi":7533,"VxAMAzl":7534,"Volumetric":7535,"Virtus":7536,"Village":7537,"Vapexhale":7538,"VILEGE":7539,"Vancouver":7540,"Wrestling":7541,"Wengl":7542,"Wraith":7543,"Wallingford":7544,"Weekly":7545,"WRLD":7546,"Xander":7547,"XBOX":7548,"Yamaha":7549,"YSEY":7550,"Zirael":7551,"Zarya":7552,"ZOOKA":7553,"_(âĹķâĢ¿âĹķ)âĻ¡":7554,"aesthet":7555,"average":7556,"bilitated":7557,"birkinx":7558,"bubbaj":7559,"builders":7560,"carpy":7561,"course":7562,"crusty":7563,"crafts":7564,"danbam":7565,"dorf":7566,"dontdoodle":7567,"dazed":7568,"dankfiber":7569,"drifting":7570,"ektive":7571,"feliz":7572,"finally":7573,"fluffy":7574,"genecalmer":7575,"gotta":7576,"guns":7577,"graduate":7578,"gebacks":7579,"gammut":7580,"hwan":7581,"horse":7582,"handcrafts":7583,"ihavepl":7584,"iBeatCakes":7585,"kÄ±yoz":7586,"lolifagot":7587,"lighterpack":7588,"likes":7589,"missing":7590,"mikke":7591,"minshwan":7592,"ninjas":7593,"nameiscrap":7594,"nongender":7595,"nighhh":7596,"oCarSoares":7597,"pussy":7598,"poses":7599,"pendulous":7600,"pcpartpicker":7601,"rutchi":7602,"something":7603,"soft":7604,"sobexmaster":7605,"squeamish":7606,"saved":7607,"spicy":7608,"swarfarm":7609,"spineless":7610,"timore":7611,"tinyurl":7612,"tanktop":7613,"trigger":7614,"vodka":7615,"vriska":7616,"wishlist":7617,"xSonny":7618,"yournameiscrap":7619,"¡ï¼¹":7620,"¢ãĥ¬ãĥ":7621,"¥æľ¬èªŀ":7622,"©ï¼Ńï¼¥":7623,"ªåĭķ":7624,"®å¥³å£«":7625,"²Ð°Ð½":7626,"´Ð°Ð²Ð°Ð½":7627,"¸Ð¹":7628,"»Ð´Ð°Ð²Ð°Ð½":7629,"ÌľÌ¼":7630,"ÌłÌĹÌŁÍī":7631,"Ì´Ìĸ":7632,"Ì¹Ì¼Íī":7633,"ÍĶÌłÌĹÌŁÍī":7634,"ÍŀÌĹÌľÌ¼":7635,"ÎĶÏĨ":7636,"Î¤ÎļÎķ":7637,"ÐľÐ¾Ð":7638,"ÐłÑĥ":7639,"ÐºÐ¸Ð¹":7640,"âĨĲ":7641,"âĶĤ":7642,"âķĳ":7643,"âĿ¤":7644,"ä¸Ńæĸĩ":7645,"ä½ĽæķĻè¡ĵ":7646,"ä¿ºãģ®å¥³å£«":7647,"å°ĳå¥³ãĤ²æľ":7648,"æĬķç¨¿":7649,"æı´":7650,"æĹ¥æľ¬èªŀ":7651,"èĩªåĭķ":7652,"éŃĶæ³ķ":7653,"é£²ãĤĵãģ":7654,"Ġelegant":7655,"Ġkeeps":7656,"Ġosugame":7657,"Ġhives":7658,"Ġillogical":7659,"Ġeyecel":7660,"Ġamab":7661,"Ġartist":7662,"Ġobj":7663,"Ġopinion":7664,"Ġanthony":7665,"Ġunderwear":7666,"Ġarchie":7667,"ĠãĤ¢ãĥ¬ãĥ":7668,"Ġvegetarian":7669,"Ġ_______":7670,"ĠæĸĩæķĻå¤§å":7671,"Ġ^_^":7672,"ĠÅłk":7673,"ĠÍŁÍīÍĶÌłÌĹÌŁÍī":7674,"ĥãĤµ":7675,"ĮðŁĶ¥ðŁĴ¯":7676,"erBrand":7677,"atouch":7678,"atheist":7679,"ĠSenator":7680,"ĠSasha":7681,"ĠSingle":7682,"ĠSelect":7683,"ĠShea":7684,"ĠSilverado":7685,"ĠSimple":7686,"ĠSoshi":7687,"ĠShill":7688,"ĠSamples":7689,"ĠSummer":7690,"ĠSophie":7691,"ĠSenna":7692,"ĠSortza":7693,"ĠSoccer":7694,"ĠSWaist":7695,"ĠSISTAHZ":7696,"ĠSBOG":7697,"ĠSatchel":7698,"ĠSwitches":7699,"ĠSHEEVER":7700,"ĠSombra":7701,"ĠSerene":7702,"ĠTitan":7703,"ĠTurret":7704,"ĠTiago":7705,"ĠTampon":7706,"ĠTurner":7707,"ĠTantrrick":7708,"ĠTumblr":7709,"ĠTobias":7710,"ĠTudor":7711,"ĠTangleber":7712,"ĠTHIS":7713,"ĠTovaras":7714,"ĠTrade":7715,"ĠTruth":7716,"ĠTHERAPY":7717,"ĠTyche":7718,"ĠCoulee":7719,"ĠCitadel":7720,"ĠColts":7721,"ĠCotton":7722,"ĠClemson":7723,"ĠChef":7724,"ĠCookies":7725,"ĠCastle":7726,"ĠCrack":7727,"ĠCassie":7728,"ĠCollege":7729,"ĠCHILDREN":7730,"ĠCorsair":7731,"ĠCaptain":7732,"ĠCurrency":7733,"ĠCatholic":7734,"ĠCrossheart":7735,"ĠCHARZOOKA":7736,"ĠConquers":7737,"ĠBenfica":7738,"ĠBaltimore":7739,"ĠBreton":7740,"ĠBombadil":7741,"ĠBayou":7742,"ĠBurnstar":7743,"ĠBobcats":7744,"ĠBizaroo":7745,"ĠBruins":7746,"ĠBrickmason":7747,"ĠBaptist":7748,"ĠBoxing":7749,"ĠBermuda":7750,"ĠBraves":7751,"ĠBItch":7752,"ĠBrides":7753,"ĠBRIDE":7754,"ĠBITTY":7755,"ĠBisexual":7756,"enberg":7757,"asrieldreem":7758,"ĠASUS":7759,"ĠAAAAAND":7760,"ĠAurellia":7761,"ĠAccount":7762,"ĠASEL":7763,"ĠASIA":7764,"ĠACTIVATE":7765,"ĠAPPROVED":7766,"ĠAcemoglu":7767,"ĠAutoMod":7768,"ĠANARCHO":7769,"ĠAUTOMATED":7770,"ĠAzmodan":7771,"ĠGalahad":7772,"ĠGriffins":7773,"ĠGillibrand":7774,"ĠGifs":7775,"ĠGeorge":7776,"ĠGiven":7777,"ĠGTOmega":7778,"ĠGsync":7779,"ĠGooped":7780,"ĠGallows":7781,"ĠGorillas":7782,"ituber":7783,"ĠMurphy":7784,"ĠMetroid":7785,"ĠMandem":7786,"ĠMighty":7787,"ĠMansfield":7788,"ĠMonte":7789,"ĠMorning":7790,"ĠMartinez":7791,"ĠMonson":7792,"ĠMassage":7793,"ĠMaryland":7794,"ĠMoving":7795,"ĠMARIO":7796,"ĠMarching":7797,"ĠMarlins":7798,"ĠMasuria":7799,"ĠMoundbuilders":7800,"ĠMiata":7801,"ĠMinecraft":7802,"ĠMarquette":7803,"rehabilitated":7804,"reesedan":7805,"ĠPediatric":7806,"ĠPurposes":7807,"ĠPlain":7808,"ĠPilots":7809,"ĠPentax":7810,"ĠPantalones":7811,"ĠPacera":7812,"ĠPizza":7813,"ĠPsychology":7814,"ĠPanther":7815,"ĠPatriots":7816,"ĠPrize":7817,"ĠPoseidon":7818,"ĠPride":7819,"ĠPRIVILEGE":7820,"ĠPLEB":7821,"ĠPOMO":7822,"ĠPolice":7823,"ĠPeppermint":7824,"ĠPeribadi":7825,"ĠPanacea":7826,"ĠPiszczek":7827,"ommando":7828,"ĠHirako":7829,"ĠHinako":7830,"ĠHugoCarSoares":7831,"ĠHellfire":7832,"ĠHippie":7833,"ĠHYYYYYPE":7834,"ĠStoneheart":7835,"ĠRidgebacks":7836,"ĠRoosters":7837,"ĠRapids":7838,"ĠRuger":7839,"ĠRiley":7840,"ĠRawrr":7841,"ĠRuffneck":7842,"ĠRooted":7843,"ĠRaptor":7844,"ĠRADIO":7845,"ĠRumania":7846,"ĠRivera":7847,"ĠRasmus":7848,"ĠRAWR":7849,"ĠRPGStuck":7850,"ĠRhodesia":7851,"edasCaptor":7852,"ĠDetektive":7853,"ĠDistilling":7854,"ĠDifo":7855,"ĠDemon":7856,"ĠDodgerBot":7857,"ĠDaphnis":7858,"ĠDaryn":7859,"ĠDahlin":7860,"ĠDignitas":7861,"ĠDiamondbacks":7862,"ĠDrifter":7863,"ĠDominion":7864,"ĠDepressing":7865,"ĠDÃ¼sseldorf":7866,"ĠDataminer":7867,"ĠDisguise":7868,"ĠFrost":7869,"ĠFemale":7870,"ĠFodder":7871,"ĠFallen":7872,"ĠFashionreps":7873,"ĠFuego":7874,"ĠFeller":7875,"ĠFortress":7876,"ĠFootball":7877,"ĠFransico":7878,"ĠFailure":7879,"ĠFiiiiiiiine":7880,"lacto":7881,"Ġbunny":7882,"Ġbirb":7883,"Ġbaynes":7884,"Ġbastard":7885,"Ġbeater":7886,"Ġbronze":7887,"Ġbacon":7888,"Ġbahcoons":7889,"Ġbanners":7890,"Ġbreakfast":7891,"Ġbelieve":7892,"Ġbalanced":7893,"ĠNecroph":7894,"ĠNimas":7895,"ĠNugu":7896,"ĠNaboo":7897,"ĠNovatouch":7898,"ĠNothing":7899,"ĠNationals":7900,"ĠNeurosurgery":7901,"Ġdickheads":7902,"Ġdepraved":7903,"Ġdealing":7904,"Ġdismember":7905,"Ġdaughter":7906,"ĠIntuition":7907,"ĠImmortality":7908,"ĠINCI":7909,"ĠImpared":7910,"ĠBuffs":7911,"ĠButler":7912,"ĠBukkake":7913,"andromedasCaptor":7914,"ĠLionfish":7915,"ĠLiftDual":7916,"ĠLearning":7917,"ĠLiege":7918,"ĠLeathernecks":7919,"ĠLockheed":7920,"ĠLineage":7921,"ĠLovely":7922,"ĠLiquid":7923,"ĠLoadcell":7924,"ĠLatitude":7925,"Ġweeks":7926,"Ġwitchy":7927,"Ġwanna":7928,"Ġwarfowl":7929,"Ġwinner":7930,"usensButtBudd":7931,"Ġ(âĹ¡âĢ¿âĹ¡":7932,"Ġsummoner":7933,"Ġsnipe":7934,"Ġsculpt":7935,"Ġseemed":7936,"Ġspeaks":7937,"Ġsweatin":7938,"Ġseagoing":7939,"Ġsuicel":7940,"Ġsystem":7941,"Ġsurvival":7942,"Ġsuspiciously":7943,"ĠWashU":7944,"ĠWittenberg":7945,"ĠWarmia":7946,"ĠWoken":7947,"ĠWhawha":7948,"ĠWrangler":7949,"ĠWheaton":7950,"ĠWZeP":7951,"ĠWhisperer":7952,"ĠWrench":7953,"ĠWheelstand":7954,"Ġmyself":7955,"Ġmovie":7956,"Ġmetaethics":7957,"ĠOubre":7958,"ĠOeste":7959,"ĠODDYSEY":7960,"ĠOblivion":7961,"ĠOfficer":7962,"ĠObsessed":7963,"ĠOvcharka":7964,"Ġfudge":7965,"Ġfruits":7966,"Ġfooled":7967,"Ġfluent":7968,"Ġfilmmaker":7969,"ĠYordle":7970,"ĠYugituber":7971,"ĠYacht":7972,"ĠYasuo":7973,"Ġaggressive":7974,"Ġagenda":7975,"commercial":7976,"ĠKendrick":7977,"ĠKilda":7978,"ĠKelly":7979,"ĠKunkka":7980,"ĠKorean":7981,"ĠKratz":7982,"ĠKINGDOM":7983,"ĠKirsten":7984,"ĠKhuon":7985,"ĠEffect":7986,"ĠEileen":7987,"ĠEpiphone":7988,"Ġ1177":7989,"Ġ1483":7990,"Ġtickling":7991,"Ġteacher":7992,"Ġterminal":7993,"Ġtrump":7994,"ĠULTIMATE":7995,"ĠCarmelo":7996,"Ġ2179":7997,"Ġ2351":7998,"entirely":7999,"Ġcumia":8000,"Ġcereal":8001,"Ġcolorful":8002,"Ġcivilization":8003,"Ġcensored":8004,"Ġcancer":8005,"Ġconfirm":8006,"Ġcyborg":8007,"Ġposter":8008,"Ġpronouns":8009,"Ġpointy":8010,"Ġprayers":8011,"Ġhoodyh":8012,"Ġhydrant":8013,"Ġhormones":8014,"Ġhedonistic":8015,"ĠVallon":8016,"ĠVapcap":8017,"ĠVictorium":8018,"ĠVoivodeship":8019,"Ġgangster":8020,"Ġgonna":8021,"Ġintercourse":8022,"Ġinevitable":8023,"Negativer":8024,"Ġnerwhoo":8025,"111849":8026,"11191":8027,"Ġlittle":8028,"dogwoodhandcrafts":8029,"Chrono":8030,"Chelsea":8031,"ĠJenragement":8032,"ansthatday":8033,"Theocracies":8034,"Ġissues":8035,"Stockholm":8036,"Stonefoot":8037,"Stenhouse":8038,"myportfolio":8039,"ĠUndergraduate":8040,"ĠUnlimited":8041,"Thinking":8042,"INSTINCT":8043,"ï¼ģðŁĮ´":8044,"ĠSpudmancer":8045,"ĠSpinners":8046,"ĠSpoiling":8047,"ĠRedditors":8048,"ĠThousand":8049,"ĠThoughts":8050,"CleoBestWaifu":8051,"Ġreporting":8052,"Ġrepetitive":8053,"Ġrequired":8054,"ĠAmbassador":8055,"Alternative":8056,"ĠChristmas":8057,"ĠCharleston":8058,"Splitta":8059,"TeamBokusensButtBudd":8060,"TeamTiramasu":8061,"ryWafflemuffin":8062,"Ġkommentar":8063,"Ġrpghax":8064,"ĠMajesty":8065,"ĠPrussia":8066,"ĠReigns":8067,"ĠReferral":8068,"ĠRepublic":8069,"ĠAssasin":8070,"ĠEntertainment":8071,"107918":8072,"Ġvoicecel":8073,"ArcMarCactuar":8074,"Professional":8075,"Prosperity":8076,"ĠZealand":8077,"3742271":8078,"530109":8079,"ĠXcaliber":8080,"Ġjoinery":8081,"Ġchlamydia":8082,"76561198184805093":8083,"76561198145931608":8084,"76561198262602522":8085,"AllTheThings":8086,"Ġclothes":8087,"ALIGNMENT":8088,"ShitPoster":8089,"Shoplifter":8090,"Unnecessary":8091,"Warringah":8092,"ARTISM":8093,"Catmander":8094,"DESERT":8095,"ScaeTheGreat":8096,"shortfuzd":8097,"ĠParamedic":8098,"APPLICANT":8099,"Mindless":8100,"Ġorrustu":8101,"ĠðŁĺĤðŁĳĮðŁĶ¥ðŁĴ¯":8102,"ĠPalpatine":8103,"ĠDeviantArtest":8104,"Ġblowjobs":8105,"BONAPARTISM":8106,"BOATSEXXX":8107,"Extinction":8108,"Infamous":8109,"Investor":8110,"Ġenmeshment":8111,"Ġenviroment":8112,"ĠATTAAAACK":8113,"ĠProthrombin":8114,"Ġpropagandist":8115,"76561198236095878":8116,"76561198276719212":8117,"76561198244616900":8118,"Broadmoor":8119,"Cloaked":8120,"CHIEFSMANA":8121,"ENgineerTP":8122,"Imaginarium":8123,"ImperiumImaginarium":8124,"kinosaurus":8125,"kintsugi":8126,"ÌĹÌ¼Ì¹Ì¼Íī":8127,"Ġzanpakuto":8128,"ĠSyndrome":8129,"ĠMcBastard":8130,"ĠMcHottie":8131,"ĠMcPoyle":8132,"ĠDraghicescu":8133,"ĠExozoologist":8134,"Ġintrinsic":8135,"Ġintenstified":8136,"76561198092530109":8137,"76561198072811191":8138,"76561198097839932":8139,"76561198035913210":8140,"Confederacy":8141,"Disillusioned":8142,"Luminosity":8143,"Merfolk":8144,"NIEDRIGE":8145,"Production":8146,"SBFCrecs":8147,"Ġï¼¤ï¼¡ï¼¹":8148,"Ġï¼´ï¼©ï¼Ńï¼¥":8149,"ĠCanIexpressmysel":8150,"ĠFirebeard":8151,"Ġcontroller":8152,"âĻ¡âľ§*ãĢĤâľ¿":8153,"AAAAAAAAAAAAAAAAAAAAAAAAAAAAAAAAHHH":8154,"AnarcoShitPoster":8155,"AnarchObjectivist":8156,"BigBallerBrand":8157,"BuffServers":8158,"BringBackGirdles":8159,"ChileBoys":8160,"Demonheadge":8161,"Dangerously":8162,"LETROZOLE":8163,"McDreamy":8164,"McMurray":8165,"MrDestructoid":8166,"MattyMatt":8167,"SGQDXUOTZE":8168,"Sludgerz":8169,"SilkyDanglez":8170,"Superguardian":8171,"cuxslayer":8172,"fwithoutflair":8173,"likeafoxx":8174,"§å¿ľæı´":8175,"Ì¥ÌĺÌŀÌĹ":8176,"ÑģÑģÐºÐ¸Ð¹":8177,"ï½¡âĹķâĢ¿âĹķï½¡)":8178,"ĠÃ¥rets":8179,"ĠÃ§Ä±kÄ±yoz":8180,"Ġexcellent":8181,"ĠCategories":8182,"ĠConnoisseur":8183,"ĠAdvancement":8184,"ĠGemthusiast":8185,"ĠMushroom":8186,"heartbeats":8187,"Ġapparently":8188,"ĠENERGIE":8189,"ArtEEzy":8190,"DoctorFaust":8191,"FriendCode":8192,";âĹī)))&":8193,"AvaÃŃ":8194,"Appreciated":8195,"Badlifechoices":8196,"BearableBog":8197,"Bankview":8198,"BVEoOqA":8199,"CamiloDFM":8200,"Downvote":8201,"DeemSleep":8202,"Distinguished":8203,"ESSRYAN":8204,"Earnhardt":8205,"Errorplanes":8206,"Gaporigo":8207,"Grymloq":8208,"Herbalizer":8209,"MOTHERFUCKING":8210,"PanÄįevo":8211,"PotatoGPU":8212,"POLYCHAD":8213,"RUTHLESSRYAN":8214,"Riksvapnet":8215,"Sometimes":8216,"Shibanator":8217,"Twinblast":8218,"Timberwolves":8219,"Wenglonger":8220,"aesthetics":8221,"bubbajack":8222,"dontdoodlemypoodle":8223,"ihaveplansthatday":8224,"ÎĶÏĨÎ¨":8225,"ÐľÐ¾Ð»Ð´Ð°Ð²Ð°Ð½":8226,"ÐłÑĥÑģÑģÐºÐ¸Ð¹":8227,"ä½ĽæķĻè¡ĵèªŀ":8228,"å°ĳå¥³ãĤ²æľĢé«ĺ":8229,"èĩªåĭķæĬķç¨¿":8230,"éŃĶæ³ķå°ĳå¥³ãĤ²æľĢé«ĺ":8231,"é£²ãĤĵãģ§å¿ľæı´":8232,"Ġopinionated":8233,"ĠãĤ¢ãĥ¬ãĥĥãĤµ":8234,"ĠæĸĩæķĻå¤§åŃ¦":8235,"ĠÍŁÍīÍĶÌłÌĹÌŁÍīÌ¥":8236,"ĠTangleberryWafflemuffin":8237,"asrieldreemurr":8238,"ĠNecrophilia":8239,"Ġdismembered":8240,"Ġ(âĹ¡âĢ¿âĹ¡âľ¿)":8241,"TeamBokusensButtBuddies":8242,"ĠCanIexpressmyselfwithoutflair":8243}