{"<s>":0,"<pad>":1,"</s>":2,"<unk>":3,"<mask>":4,"!":5,"\"":6,"#":7,"$":8,"%":9,"&":10,"'":11,"(":12,")":13,"*":14,"+":15,",":16,"-":17,".":18,"/":19,"0":20,"1":21,"2":22,"3":23,"4":24,"5":25,"6":26,"7":27,"8":28,"9":29,":":30,";":31,"<":32,"=":33,">":34,"?":35,"@":36,"A":37,"B":38,"C":39,"D":40,"E":41,"F":42,"G":43,"H":44,"I":45,"J":46,"K":47,"L":48,"M":49,"N":50,"O":51,"P":52,"Q":53,"R":54,"S":55,"T":56,"U":57,"V":58,"W":59,"X":60,"Y":61,"Z":62,"[":63,"\\":64,"]":65,"^":66,"_":67,"`":68,"a":69,"b":70,"c":71,"d":72,"e":73,"f":74,"g":75,"h":76,"i":77,"j":78,"k":79,"l":80,"m":81,"n":82,"o":83,"p":84,"q":85,"r":86,"s":87,"t":88,"u":89,"v":90,"w":91,"x":92,"y":93,"z":94,"{":95,"|":96,"}":97,"~":98,"¡":99,"¢":100,"£":101,"¤":102,"¥":103,"¦":104,"§":105,"¨":106,"©":107,"ª":108,"«":109,"¬":110,"®":111,"¯":112,"°":113,"±":114,"²":115,"³":116,"´":117,"µ":118,"¶":119,"·":120,"¸":121,"¹":122,"º":123,"»":124,"¼":125,"½":126,"¾":127,"¿":128,"À":129,"Á":130,"Â":131,"Ã":132,"Ä":133,"Å":134,"Æ":135,"Ç":136,"È":137,"É":138,"Ê":139,"Ë":140,"Ì":141,"Í":142,"Î":143,"Ï":144,"Ð":145,"Ñ":146,"Ò":147,"Ó":148,"Ô":149,"Õ":150,"Ö":151,"×":152,"Ø":153,"Ù":154,"Ú":155,"Û":156,"Ü":157,"Ý":158,"Þ":159,"ß":160,"à":161,"á":162,"â":163,"ã":164,"ä":165,"å":166,"æ":167,"ç":168,"è":169,"é":170,"ê":171,"ë":172,"ì":173,"í":174,"î":175,"ï":176,"ð":177,"ñ":178,"ò":179,"ó":180,"ô":181,"õ":182,"ö":183,"÷":184,"ø":185,"ù":186,"ú":187,"û":188,"ü":189,"ý":190,"þ":191,"ÿ":192,"Ā":193,"ā":194,"Ă":195,"ă":196,"Ą":197,"ą":198,"Ć":199,"ć":200,"Ĉ":201,"ĉ":202,"Ċ":203,"ċ":204,"Č":205,"č":206,"Ď":207,"ď":208,"Đ":209,"đ":210,"Ē":211,"ē":212,"Ĕ":213,"ĕ":214,"Ė":215,"ė":216,"Ę":217,"ę":218,"Ě":219,"ě":220,"Ĝ":221,"ĝ":222,"Ğ":223,"ğ":224,"Ġ":225,"ġ":226,"Ģ":227,"ģ":228,"Ĥ":229,"ĥ":230,"Ħ":231,"ħ":232,"Ĩ":233,"ĩ":234,"Ī":235,"ī":236,"Ĭ":237,"ĭ":238,"Į":239,"į":240,"İ":241,"ı":242,"Ĳ":243,"ĳ":244,"Ĵ":245,"ĵ":246,"Ķ":247,"ķ":248,"ĸ":249,"Ĺ":250,"ĺ":251,"Ļ":252,"ļ":253,"Ľ":254,"ľ":255,"Ŀ":256,"ŀ":257,"Ł":258,"ł":259,"Ń":260,"er":261,"in":262,"on":263,"an":264,"or":265,"es":266,"at":267,"ĠS":268,"ĠT":269,"ar":270,"ĠC":271,"am":272,"Ġ/":273,"is":274,"ĠB":275,"en":276,"ers":277,"ll":278,"th":279,"ck":280,"as":281,"ig":282,"ĠA":283,"ou":284,"ĠG":285,"it":286,"al":287,"ĠM":288,"ing":289,"re":290,"ch":291,"ol":292,"ĠP":293,"el":294,"ri":295,"ate":296,"om":297,"ĠH":298,"ot":299,"ĠSt":300,"ĠR":301,"ed":302,"id":303,"ad":304,"ur":305,"ĠD":306,"ht":307,"le":308,"ĠF":309,"ĠState":310,"st":311,"la":312,"Ġ-":313,"ia":314,"Ġb":315,"ĠTig":316,"ĠTigers":317,"ow":318,"ĠN":319,"of":320,"Ġd":321,"he":322,"oo":323,"et":324,"un":325,"Ġ|":326,"Ġth":327,"ĠI":328,"ĠBu":329,"and":330,"ic":331,"il":332,"ĠL":333,"Ġw":334,"ir":335,"us":336,"Ġ(":337,"Ġs":338,"ist":339,"cks":340,"ec":341,"ĠW":342,"ex":343,"ut":344,"Ġm":345,"ĠO":346,"Ġf":347,"ha":348,"ĠY":349,"ub":350,"Ġa":351,"com":352,"tp":353,"ĠK":354,"//":355,"://":356,"http":357,"ĠE":358,"eam":359,"im":360,"ies":361,"ev":362,"ion":363,"Ġ1":364,"Ġthe":365,"00":366,"og":367,"ay":368,"Ġof":369,"est":370,"ke":371,"os":372,"Ġt":373,"ag":374,"ĠU":375,"ĠCar":376,"hi":377,"Ġ2":378,"ms":379,"ent":380,"ve":381,"Ġc":382,"AA":383,"HL":384,"amp":385,"ne":386,"ðŁ":387,"Ġp":388,"mson":389,"Ġh":390,"ill":391,"ĠV":392,"Ġg":393,"ight":394,"ĠGam":395,"ĠBull":396,"ro":397,"ĠĊ":398,"urn":399,"if":400,"ant":401,"em":402,"17":403,"Ġy":404,"Ġin":405,"end":406,"ĠNHL":407,"exas":408,"uburn":409,"Ne":410,"ey":411,"ina":412,"https":413,"Auburn":414,"um":415,"Ġn":416,"ast":417,"ee":418,"ra":419,"ama":420,"ity":421,"11":422,"SU":423,"Ġl":424,"outh":425,"olina":426,"ĠCarolina":427,"dog":428,"ich":429,"Ġ3":430,"ide":431,"ocks":432,"pr":433,"ver":434,"ess":435,"ecocks":436,"ĠGamecocks":437,"Ch":438,"PS":439,"bama":440,"ear":441,"ĠJ":442,"ans":443,"labama":444,"ĠBuck":445,"CF":446,"South":447,"The":448,"od":449,"pp":450,"ere":451,"ator":452,"ie":453,"org":454,"our":455,"hio":456,"ĠBulldog":457,"New":458,"ĠBulldogs":459,"LSU":460,"ak":461,"ain":462,"ct":463,"ly":464,"Ġis":465,"Ġand":466,"anim":467,"ĠTide":468,"ĠCri":469,"eyes":470,"ĠBuckeyes":471,"ĠCrimson":472,"16":473,"all":474,"ack":475,"bo":476,"ech":477,"ont":478,"'s":479,"76":480,"Alabama":481,"Ohio":482,"gg":483,"lor":484,"orn":485,"art":486,"ish":487,"elist":488,"animelist":489,"20":490,"eorg":491,"Ġ4":492,"ash":493,"prof":494,"80":495,"St":496,"ap":497,"ian":498,"my":499,"ob":500,"eorgia":501,"OT":502,"Texas":503,"ce":504,"kies":505,"mun":506,"ons":507,"ame":508,"Ġ||":509,"eat":510,"Ġon":511,"ĠTech":512,"iss":513,"ĠUn":514,"Th":515,"US":516,"ue":517,"commun":518,"AT":519,"IN":520,"ff":521,"land":522,"nd":523,"net":524,"op":525,"ock":526,"ts":527,"ton":528,"ï¼":529,"ord":530,"ĠCha":531,"enn":532,"ĠFC":533,"ood":534,"ild":535,"Ġyou":536,"15":537,"night":538,"ul":539,"Ġ5":540,"Ġ6":541,"inal":542,"ond":543,"ork":544,"ĠSp":545,"ited":546,"ĠRed":547,"ida":548,"ĠKnight":549,"lorida":550,"community":551,"ĠChaos":552,"'t":553,"22":554,"gin":555,"ith":556,"ter":557,"ug":558,"âĻ":559,"ong":560,"ĠTh":561,"ĠTeam":562,"ard":563,"ĠAgg":564,"steam":565,"ever":566,"CFB":567,"myanimelist":568,"ĠAggies":569,"steamcommunity":570,"18":571,"ell":572,"ile":573,"qu":574,"se":575,"Ġ9":576,"reg":577,"Ġfor":578,"ays":579,"Ġto":580,"AAAA":581,"..":582,"12":583,"14":584,"56":585,"70":586,"Cle":587,"ost":588,"ww":589,"ys":590,"âĹ":591,"Ġre":592,"ass":593,"ĠAm":594,"ric":595,"ĠYork":596,"'m":597,"Al":598,"Mich":599,"av":600,"eg":601,"tl":602,"ud":603,"ine":604,"any":605,"orth":606,"ĠCh":607,"igan":608,"olor":609,"rib":610,"ado":611,"ets":612,"Ġ10":613,"Ġnot":614,"ears":615,"19":616,"50":617,"93":618,"Atl":619,"GB":620,"Sp":621,"Team":622,"aw":623,"ik":624,"iv":625,"iam":626,"ive":627,"ust":628,"ort":629,"ats":630,"ars":631,"ary":632,"itt":633,"ĠDu":634,"Ġbe":635,"irgin":636,"Ġmy":637,"anta":638,"ators":639,"ĠUnited":640,"âĻĢ":641,"regon":642,"Clemson":643,"Atlanta":644,"irginia":645,"03":646,"ER":647,"aid":648,"co":649,"der":650,"dinal":651,"ry":652,"ron":653,"Ġ8":654,"Ġk":655,"Ġr":656,"ang":657,"ĠThe":658,"ĠTexas":659,"ĠGators":660,"ĠMa":661,"ington":662,"ĠPr":663,"ots":664,"ĠRe":665,"Ġme":666,"ions":667,"ĠCardinal":668,"Ġ20":669,"ashington":670,"ĠKnights":671,"200":672,"44":673,"Florida":674,"Georgia":675,"TX":676,"ab":677,"ld":678,"oc":679,"per":680,"te":681,"ãģ":682,"are":683,"ĠCont":684,"ĠAs":685,"oma":686,"ĠHus":687,"lay":688,"iles":689,"ext":690,"utor":691,"ĠEn":692,"Ġhere":693,"119":694,"7656":695,"profiles":696,"âĹķ":697,"ributor":698,"ĠContributor":699,"ĠHuskies":700,"7656119":701,"),":702,"10":703,"Color":704,"DR":705,"MT":706,"Qu":707,"ick":708,"man":709,"oll":710,"ser":711,"tt":712,"uck":713,"âĺ":714,"Ġha":715,"anes":716,"ens":717,"oug":718,"old":719,"els":720,"owl":721,"owbo":722,"Ġwith":723,"ect":724,"ðŁĶ":725,"ĠBulls":726,"profile":727,"ĠDucks":728,"owboys":729,"13":730,"26":731,"HI":732,"Not":733,"Washington":734,"ep":735,"ied":736,"ike":737,"ipp":738,"ks":739,"ty":740,"Ġ[":741,"Ġv":742,"Ġit":743,"Ġhe":744,"one":745,"ĠCowboys":746,"ĠBla":747,"ĠBowl":748,"out":749,"ĠGeorgia":750,"urric":751,"unk":752,"ĠOne":753,"ĠUser":754,"box":755,"Michigan":756,"ðŁĶĶ":757,"urricanes":758,"Ar":759,"OU":760,"Pr":761,"TO":762,"Text":763,"Virginia":764,"ac":765,"homa":766,"ire":767,"kla":768,"ni":769,"ull":770,"âĢ":771,"Ġ'":772,"ĠZ":773,"ern":774,"ins":775,"ona":776,"ore":777,"ĠBl":778,"ĠAtt":779,"ĠHaw":780,"ĠFan":781,"own":782,"Ġdays":783,"oooo":784,"endee":785,"akers":786,"klahoma":787,"ĠAttendee":788,"37":789,"53":790,"Bot":791,"FF":792,"II":793,"MA":794,"Mar":795,"Miss":796,"TR":797,"Wa":798,"Xbox":799,"az":800,"ber":801,"ea":802,"hat":803,"mon":804,"ov":805,"oes":806,"okies":807,"rad":808,"rag":809,"rish":810,"ting":811,"uff":812,"à¼":813,"Ġ&":814,"ĠX":815,"Ġj":816,"Ġch":817,"ors":818,"ĠCoug":819,"ĠBot":820,"itch":821,"red":822,"ĠHokies":823,"ĠRock":824,"ĠDame":825,"ĠDDR":826,"ĠFight":827,"Ġthis":828,"ĠIrish":829,"ĠLong":830,"ĠLions":831,"ird":832,"ĠWol":833,"ĠYan":834,"evel":835,"Ġ16":836,"aster":837,"OTT":838,"issipp":839,"This":840,"iami":841,"aiders":842,"ãģ¤":843,"76561198":844,"Colorado":845,"MTL":846,"Mississipp":847,"ĠCougars":848,"ĠFighting":849,"Mississippi":850,"24":851,"700":852,"All":853,"En":854,"HAT":855,"KE":856,"Man":857,"Mod":858,"Oklahoma":859,"cats":860,"ef":861,"eal":862,"ford":863,"gers":864,"her":865,"horn":866,"iz":867,"ka":868,"mer":869,"oy":870,"oon":871,"ois":872,"rom":873,"sy":874,"Ġi":875,"Ġla":876,"Ġus":877,"Ġare":878,"ines":879,"anth":880,"ĠSc":881,"ĠTro":882,"ĠCom":883,"ous":884,"ĠGTX":885,"ĠGold":886,"ĠHurricanes":887,"ĠRaiders":888,"urg":889,"ston":890,"Ġbut":891,"Ġdon":892,"Ġdid":893,"under":894,"ĠOregon":895,"ĠUS":896,"Ġcl":897,"ille":898,"ĠVol":899,"ified":900,"Ġyour":901,"verines":902,"Child":903,"...":904,"www":905,"ĠChamp":906,"aby":907,"ĠRockies":908,"ĠLonghorn":909,"ĠWolverines":910,"ĠGolden":911,"ĠLonghorns":912,"60":913,"87":914,"AL":915,"CS":916,"IS":917,"Kni":918,"No":919,"Sh":920,"Un":921,"UCF":922,"War":923,"ael":924,"acks":925,"cle":926,"ead":927,"here":928,"lt":929,"nt":930,"oth":931,"oot":932,"ph":933,"ring":934,"up":935,"van":936,"ville":937,"±S":938,"Î±S":939,"âľ":940,"Ġas":941,"ĠQu":942,"eran":943,"atri":944,"ation":945,"ĠBears":946,"ĠAn":947,"ĠAr":948,"ĠAll":949,"ĠMiami":950,"ree":951,"reat":952,"oles":953,"ster":954,"owa":955,"ĠNorth":956,"ĠNitt":957,"heever":958,"eteran":959,"ĠWild":960,"kees":961,"age":962,"ðŁĩ":963,"ĠVeteran":964,"ĠGaming":965,"ender":966,"ally":967,"artans":968,"USA":969,"ĠSpartans":970,"Ġ1080":971,"Notre":972,"ĠYankees":973,"Knicks":974,"ĠNittany":975,"ĠWildcats":976,"!!":977,"'ll":978,"30":979,"52":980,"69":981,"90":982,"AH":983,"AR":984,"Be":985,"Cat":986,"Cal":987,"DE":988,"Es":989,"IL":990,"Jam":991,"North":992,"OD":993,"Oregon":994,"Pl":995,"Penn":996,"Patri":997,"Que":998,"Sc":999,"TE":1000,"Tor":1001,"ah":1002,"ake":1003,"act":1004,"cons":1005,"don":1006,"dit":1007,"eb":1008,"ial":1009,"ium":1010,"oke":1011,"ove":1012,"pi":1013,"ru":1014,"rat":1015,"ris":1016,"ral":1017,"sh":1018,"ta":1019,"tle":1020,"ure":1021,"Ġ+":1022,"Ġ7":1023,"Ġat":1024,"Ġst":1025,"Ġà¼":1026,"inc":1027,"ink":1028,"onn":1029,"ones":1030,"anc":1031,"anford":1032,"ouston":1033,"ale":1034,"ĠMich":1035,"ings":1036,"rew":1037,"read":1038,"ĠPar":1039,"ĠPoll":1040,"elb":1041,"riz":1042,"rick":1043,"ĠHun":1044,"ider":1045,"ĠDays":1046,"let":1047,"ĠFlorida":1048,"ower":1049,"Ġdo":1050,"ook":1051,"Ġsh":1052,"ose":1053,"hief":1054,"ney":1055,"emin":1056,"Ġlike":1057,"ction":1058,"onto":1059,"arty":1060,"apt":1061,"USF":1062,"AAAAAAAA":1063,"ĠCardinals":1064,"Ġ2017":1065,"anthers":1066,"Toronto":1067,"hiefs":1068,"100":1069,"45":1070,"49":1071,"73":1072,"AM":1073,"AN":1074,"AP":1075,"Ariz":1076,"Bar":1077,"GE":1078,"Gr":1079,"HER":1080,"IP":1081,"If":1082,"Lakers":1083,"Level":1084,"Min":1085,"Med":1086,"MIN":1087,"Master":1088,"ND":1089,"One":1090,"Rock":1091,"UG":1092,"Ver":1093,"__":1094,"bels":1095,"burg":1096,"ein":1097,"gain":1098,"hn":1099,"iP":1100,"ii":1101,"io":1102,"ix":1103,"jans":1104,"les":1105,"lvan":1106,"me":1107,"met":1108,"ox":1109,"oin":1110,"och":1111,"rans":1112,"yd":1113,"yz":1114,"yes":1115,"Ġ\"":1116,"Ġ@":1117,"Ġor":1118,"ĠðŁ":1119,"Ġever":1120,"erv":1121,"erator":1122,"onf":1123,"ane":1124,"ank":1125,"ato":1126,"ĠSemin":1127,"arch":1128,"ĠBe":1129,"ĠBr":1130,"igh":1131,"ouis":1132,"ality":1133,"ĠMod":1134,"ream":1135,"olog":1136,"ĠPal":1137,"ĠPenn":1138,"rive":1139,"ated":1140,"ĠHer":1141,"ade":1142,"adi":1143,"urr":1144,"ĠDev":1145,"lair":1146,"Ġbl":1147,"Ġdeat":1148,"oop":1149,"unte":1150,"Ġthat":1151,"ics":1152,"ict":1153,"Ġwe":1154,"use":1155,"Ġso":1156,"ĠYOU":1157,"ĠEl":1158,"ester":1159,"ago":1160,"ager":1161,"ife":1162,"iforn":1163,"1776":1164,"eep":1165,"Ġlove":1166,"Ġ30":1167,"essee":1168,"Choo":1169,"ĠJo":1170,"ansas":1171,"ourne":1172,"Thunder":1173,"ING":1174,"ennessee":1175,"ello":1176,"ĠAmaz":1177,"ĠMach":1178,"ĠRebels":1179,"ĠAscle":1180,"âĺħ":1181,"Ġhapp":1182,"ĠHawks":1183,"KEK":1184,"ĠTrojans":1185,"ĠVolunte":1186,"ĠChampion":1187,"Patriots":1188,"pius":1189,"elbourne":1190,"Arizona":1191,"lvania":1192,"yzen":1193,"ĠSeminoles":1194,"Ġdeath":1195,"ifornia":1196,"ĠAmazing":1197,"ĠAsclepius":1198,"ĠVolunteers":1199,"33":1200,"35":1201,"522":1202,"65":1203,"74":1204,"79":1205,"BO":1206,"Bl":1207,"Bull":1208,"CP":1209,"Che":1210,"DD":1211,"Drag":1212,"Ex":1213,"Funk":1214,"GOD":1215,"IC":1216,"In":1217,"Iowa":1218,"Mary":1219,"NA":1220,"OL":1221,"Pack":1222,"Ryzen":1223,"SC":1224,"Sk":1225,"Sam":1226,"Tennessee":1227,"VA":1228,"West":1229,"WHAT":1230,"_âĹķ":1231,"ach":1232,"ace":1233,"bl":1234,"cc":1235,"cm":1236,"dam":1237,"ft":1238,"for":1239,"go":1240,"gt":1241,"ger":1242,"gland":1243,"ho":1244,"hz":1245,"ib":1246,"iers":1247,"kansas":1248,"lin":1249,"ling":1250,"ladi":1251,"ment":1252,"pir":1253,"rist":1254,"sel":1255,"uy":1256,"ual":1257,"zo":1258,"¸ı":1259,"ãĢ":1260,"ï¸ı":1261,"Ġe":1262,"Ġen":1263,"Ġne":1264,"Ġqu":1265,"ĠâĹķ":1266,"ĠâĢ":1267,"Ġãģ¤":1268,"ĠÎ±S":1269,"erm":1270,"iny":1271,"ince":1272,"inois":1273,"orld":1274,"ath":1275,"atch":1276,"ĠSh":1277,"ĠTer":1278,"arl":1279,"arm":1280,"ĠCF":1281,"ĠCub":1282,"ĠCorn":1283,"ĠChiefs":1284,"ise":1285,"iscons":1286,"ĠBE":1287,"ĠBig":1288,"ĠBad":1289,"ĠBaby":1290,"erson":1291,"llinois":1292,"ase":1293,"ign":1294,"ĠAT":1295,"ĠAlabama":1296,"ould":1297,"ount":1298,"alin":1299,"olut":1300,"ĠPro":1301,"ĠPanthers":1302,"riors":1303,"ĠHel":1304,"ĠHouston":1305,"ids":1306,"ada":1307,"Ġbest":1308,"ĠNOT":1309,"Ġdrive":1310,"ĠIllinois":1311,"ica":1312,"icago":1313,"ils":1314,"ily":1315,"ĠLe":1316,"Ġwh":1317,"Ġwill":1318,"ĠWest":1319,"uty":1320,"ĠOct":1321,"Ġfrom":1322,"ĠYell":1323,"Ġagain":1324,"ĠEs":1325,"ĠEgg":1326,"even":1327,"keyes":1328,"hip":1329,"entuck":1330,"Ġcan":1331,"Ġpro":1332,"Ġplay":1333,"illary":1334,"ĠVirginia":1335,"Ġgo":1336,"ifu":1337,"ends":1338,"rac":1339,"rap":1340,"rav":1341,"Chicago":1342,"ĠJack":1343,"Stanford":1344,"iana":1345,"ober":1346,"ï¼¥":1347,"ĠThree":1348,"Michael":1349,"ikato":1350,"iamond":1351,"Ġhave":1352,"ĠBlacks":1353,"ĠBlue":1354,"ĠHawkeyes":1355,"oooooooo":1356,"Waikato":1357,"reddit":1358,"765611982":1359,"sylvania":1360,"ĠQuakers":1361,"California":1362,"James":1363,"Ġà¼½":1364,"ĠMichigan":1365,"rewman":1366,"ĠHunting":1367,"ĠPennsylvania":1368,"ĠDevils":1369,"Packers":1370,"ĠâĹķ_âĹķ":1371,"ĠCubs":1372,"isconsin":1373,"ĠYellow":1374,"entucky":1375,"ĠJackets":1376,"Michaela":1377,"06":1378,"21":1379,"28":1380,"57":1381,"68":1382,"75":1383,"84":1384,"88":1385,"99":1386,";&":1387,"AD":1388,"AS":1389,"AY":1390,"Ale":1391,"And":1392,"Aust":1393,"Bal":1394,"Best":1395,"Bro":1396,"Bost":1397,"Bron":1398,"CN":1399,"Cl":1400,"Cel":1401,"CHI":1402,"Do":1403,"Diamond":1404,"EN":1405,"EU":1406,"EAH":1407,"Fit":1408,"GA":1409,"GTX":1410,"HD":1411,"HH":1412,"Im":1413,"It":1414,"Ind":1415,"Jo":1416,"KA":1417,"KB":1418,"LL":1419,"Lu":1420,"Ly":1421,"Lord":1422,"LAL":1423,"MP":1424,"My":1425,"Melbourne":1426,"On":1427,"Op":1428,"Or":1429,"Red":1430,"Rut":1431,"Rich":1432,"ST":1433,"Sec":1434,"Sheever":1435,"TS":1436,"Ti":1437,"To":1438,"Tot":1439,"Tic":1440,"Treat":1441,"Trick":1442,"Und":1443,"VE":1444,"What":1445,"WHER":1446,"Wisconsin":1447,"YY":1448,"You":1449,"YEAH":1450,"ai":1451,"aj":1452,"aur":1453,"air":1454,"aul":1455,"aifu":1456,"bad":1457,"ble":1458,"cel":1459,"cos":1460,"da":1461,"day":1462,"ew":1463,"eer":1464,"eers":1465,"fi":1466,"gur":1467,"hone":1468,"iot":1469,"iant":1470,"ji":1471,"ky":1472,"kin":1473,"kats":1474,"ler":1475,"mond":1476,"nes":1477,"ok":1478,"ool":1479,"pl":1480,"ram":1481,"rot":1482,"ray":1483,"su":1484,"ti":1485,"tics":1486,"uper":1487,"witch":1488,"where":1489,"xJames":1490,"yth":1491,"yle":1492,"za":1493,"¨ðŁĩ":1494,"ÌĹ":1495,"ãĤ":1496,"Ġ:":1497,"Ġz":1498,"Ġan":1499,"Ġour":1500,"Ġass":1501,"Ġany":1502,"Ġup":1503,"Ġeven":1504,"ĲĬ":1505,"erb":1506,"erg":1507,"inst":1508,"inum":1509,"onk":1510,"onville":1511,"ann":1512,"ese":1513,"ater":1514,"ative":1515,"atinum":1516,"ĠST":1517,"ĠSe":1518,"ĠSy":1519,"ĠSun":1520,"ĠSouth":1521,"ĠSher":1522,"ĠTr":1523,"ĠTow":1524,"ĠTHAT":1525,"arf":1526,"arlet":1527,"ĠCE":1528,"ĠCor":1529,"ĠCat":1530,"ĠCent":1531,"ism":1532,"ĠBand":1533,"ĠBear":1534,"ĠBoot":1535,"the":1536,"asu":1537,"ason":1538,"ĠAl":1539,"oud":1540,"ouse":1541,"ĠGB":1542,"ĠGC":1543,"ĠGW":1544,"ite":1545,"ital":1546,"alc":1547,"alk":1548,"ĠME":1549,"ĠMc":1550,"ĠMan":1551,"ĠMad":1552,"ĠMount":1553,"ĠMCN":1554,"ret":1555,"chester":1556,"ĠPl":1557,"ĠPower":1558,"ĠPoin":1559,"ely":1560,"rid":1561,"rif":1562,"omin":1563,"ĠHorn":1564,"ĠHello":1565,"otect":1566,"ĠRam":1567,"ĠRev":1568,"ĠDrag":1569,"ĠFr":1570,"lave":1571,"Ġbot":1572,"Ġbad":1573,"Ġbec":1574,"ĠNot":1575,"off":1576,"ofess":1577,"Ġdr":1578,"ooper":1579,"ĠII":1580,"ĠIn":1581,"ilia":1582,"ĠLon":1583,"ĠLSU":1584,"ĠLouis":1585,"Ġwr":1586,"irl":1587,"uss":1588,"Ġshe":1589,"Ġsince":1590,"Ġman":1591,"Ġmade":1592,"ĠOn":1593,"Ġfood":1594,"haw":1595,"ĠKing":1596,"ĠEx":1597,"Ġ120":1598,"aylor":1599,"Ġtoo":1600,"Ġ290":1601,"veg":1602,"ðŁĮ":1603,"ðŁĲĬ":1604,"Ġparty":1605,"Ġher":1606,"ills":1607,"Ġgood":1608,"Ġgoes":1609,"emoc":1610,"Ġint":1611,"uman":1612,"Ġno":1613,"Ġnever":1614,"asta":1615,"Ġlife":1616,"Ġ36":1617,"vern":1618,"verified":1619,"Christ":1620,"aineers":1621,"Ġ40":1622,"eattle":1623,"Ġonly":1624,"INF":1625,"ffic":1626,"oph":1627,"Ġ6700":1628,"Ġ980":1629,"Ġread":1630,"rica":1631,"Alp":1632,"aval":1633,"194":1634,"ives":1635,"Ġ2015":1636,"ĠAspir":1637,"ĠEnoch":1638,"ĠEngland":1639,"765611980":1640,"Quality":1641,"ollow":1642,"Ġhell":1643,"ĠBlack":1644,"outub":1645,"TOR":1646,"ully":1647,"âĢ¿":1648,"rades":1649,"Manchester":1650,"Moderator":1651,"Ġlaw":1652,"Ġuser":1653,"ĠScarlet":1654,"Ġclass":1655,"United":1656,"Warriors":1657,"acksonville":1658,"ĠNorthern":1659,"ðŁĩ¨ðŁĩ":1660,"Ess":1661,"ialist":1662,"ratic":1663,"GETS":1664,"UGGETS":1665,"Verified":1666,"iPhone":1667,"ydney":1668,"ology":1669,"ictor":1670,"Ġweird":1671,"ĠMachine":1672,"âĺħâĺħ":1673,"Bulls":1674,"Maryland":1675,"ladiator":1676,"ĠTerrap":1677,"ĠCFII":1678,"ĠBadgers":1679,"olution":1680,"ĠHelmet":1681,"ï¼¥ï¼":1682,"ĠHuntingdon":1683,"AlexJames":1684,"Boston":1685,"Celtics":1686,"Fitz":1687,"OpTic":1688,"Rutgers":1689,"Richmond":1690,"WHERE":1691,"ĠTowers":1692,"ĠCentral":1693,"ĠBearkats":1694,"ĠMountaineers":1695,"ĠMCNUGGETS":1696,"ĠRevolution":1697,"emocratic":1698,"Christian":1699,"ðŁĩ¨ðŁĩ¦":1700,"ĠTerrapins":1701,"AlexJamesFitz":1702,"'d":1703,"05":1704,"09":1705,"23":1706,"39":1707,"48":1708,"480":1709,"430":1710,"54":1711,"593":1712,"61":1713,"64":1714,"650":1715,"78":1716,"95":1717,"AB":1718,"AC":1719,"Aut":1720,"Act":1721,"BI":1722,"BL":1723,"Br":1724,"Bast":1725,"Baylor":1726,"CA":1727,"CL":1728,"Can":1729,"Cre":1730,"Col":1731,"Cla":1732,"Conf":1733,"Crewman":1734,"Don":1735,"Dis":1736,"EO":1737,"FW":1738,"For":1739,"Fly":1740,"Fuck":1741,"GT":1742,"GW":1743,"Game":1744,"Ghz":1745,"HE":1746,"HU":1747,"Hit":1748,"Hurricanes":1749,"HOU":1750,"HING":1751,"Hillary":1752,"House":1753,"KS":1754,"Kyle":1755,"Lum":1756,"Leg":1757,"Lein":1758,"MC":1759,"Mu":1760,"Mer":1761,"Mpr":1762,"Mass":1763,"NI":1764,"NZ":1765,"Nin":1766,"ON":1767,"OS":1768,"Offic":1769,"PC":1770,"PL":1771,"Pol":1772,"Pro":1773,"Pain":1774,"Post":1775,"Play":1776,"Pac":1777,"Poke":1778,"RE":1779,"RI":1780,"RT":1781,"Right":1782,"Rob":1783,"Rav":1784,"Rep":1785,"Real":1786,"RAP":1787,"SB":1788,"SD":1789,"SE":1790,"SI":1791,"SL":1792,"Sha":1793,"Sub":1794,"Sain":1795,"Seattle":1796,"TC":1797,"Tit":1798,"Trans":1799,"Vy":1800,"Vik":1801,"Well":1802,"XX":1803,"Xe":1804,"Yas":1805,"Your":1806,"au":1807,"aim":1808,"app":1809,"aff":1810,"aug":1811,"bs":1812,"by":1813,"bor":1814,"best":1815,"bout":1816,"backs":1817,"ca":1818,"cl":1819,"can":1820,"cul":1821,"eth":1822,"eet":1823,"eem":1824,"fam":1825,"ful":1826,"fort":1827,"fMpr":1828,"ge":1829,"iel":1830,"iet":1831,"iver":1832,"iqu":1833,"ioc":1834,"ious":1835,"ject":1836,"joy":1837,"kas":1838,"lbor":1839,"mm":1840,"min":1841,"ming":1842,"milia":1843,"nol":1844,"oid":1845,"ooma":1846,"pe":1847,"ps":1848,"pt":1849,"ple":1850,"put":1851,"pack":1852,"que":1853,"row":1854,"ros":1855,"ress":1856,"rang":1857,"she":1858,"sheever":1859,"tra":1860,"ues":1861,"uig":1862,"uch":1863,"upp":1864,"ually":1865,"ves":1866,"wo":1867,"west":1868,"wag":1869,"weat":1870,"ware":1871,"world":1872,"yke":1873,"ycl":1874,"ze":1875,"©R":1876,"Ì¼":1877,"Íī":1878,"Î©R":1879,"âĦ":1880,"âĪ":1881,"åį":1882,"Ġ0":1883,"Ġx":1884,"Ġle":1885,"Ġun":1886,"Ġhttp":1887,"Ġro":1888,"Ġhttps":1889,"Ġeat":1890,"Ġï¼":1891,"Ġâľ":1892,"ĠQue":1893,"Ĵ¯":1894,"ĺĦ":1895,"ery":1896,"ind":1897,"inn":1898,"anic":1899,"orm":1900,"orts":1901,"orter":1902,"ormon":1903,"esid":1904,"ates":1905,"ating":1906,"atur":1907,"ations":1908,"ature":1909,"ĠSE":1910,"ĠSq":1911,"ĠSw":1912,"ĠSha":1913,"ĠSub":1914,"ĠSide":1915,"ĠSoon":1916,"ĠSox":1917,"ĠSky":1918,"ĠSatur":1919,"ark":1920,"arin":1921,"ĠCW":1922,"ĠCan":1923,"ĠCal":1924,"ĠCap":1925,"ĠCost":1926,"ĠCany":1927,"ĠColor":1928,"ĠCiv":1929,"ĠClin":1930,"ĠCycl":1931,"amm":1932,"ĠBi":1933,"ĠBall":1934,"ĠBitch":1935,"enh":1936,"cker":1937,"aska":1938,"iginal":1939,"igaby":1940,"ĠAi":1941,"ound":1942,"ĠGS":1943,"ĠGen":1944,"ĠGuy":1945,"ĠGiant":1946,"ĠGoph":1947,"ĠGaim":1948,"ĠGigaby":1949,"iting":1950,"ition":1951,"itts":1952,"alty":1953,"ĠMK":1954,"ĠMer":1955,"ĠMag":1956,"ĠMem":1957,"ĠMak":1958,"ĠMaster":1959,"rey":1960,"reen":1961,"cher":1962,"olm":1963,"ĠPCS":1964,"ĠPink":1965,"ĠParty":1966,"ĠPuig":1967,"elf":1968,"ria":1969,"rim":1970,"rium":1971,"omb":1972,"omer":1973,"ĠHP":1974,"ĠHe":1975,"ĠHar":1976,"ĠHot":1977,"ĠHere":1978,"ota":1979,"otland":1980,"ĠRes":1981,"eder":1982,"idian":1983,"ador":1984,"urs":1985,"ĠDel":1986,"ĠFire":1987,"Ġbow":1988,"Ġback":1989,"Ġbook":1990,"Ġdie":1991,"Ġdue":1992,"Ġdoes":1993,"Ġdream":1994,"Ġdating":1995,"heat":1996,"ette":1997,"unat":1998,"Ġthere":1999,"Ġthings":2000,"ĠIR":2001,"ĠId":2002,"ĠInd":2003,"ĠIII":2004,"ĠIowa":2005,"ĠLeg":2006,"ĠLTR":2007,"ĠLEO":2008,"Ġwas":2009,"Ġwant":2010,"Ġwhat":2011,"irst":2012,"usa":2013,"Ġsay":2014,"ista":2015,"ĠWashington":2016,"utt":2017,"Ġmain":2018,"Ġmuch":2019,"ĠOhio":2020,"ĠOld":2021,"ĠYour":2022,"Ġall":2023,"Ġaction":2024,"ĠKev":2025,"ĠKill":2026,"ĠKentucky":2027,"ĠEv":2028,"ĠEag":2029,"ĠEmilia":2030,"Ġ11":2031,"Ġthey":2032,"000":2033,"ogs":2034,"ayne":2035,"estro":2036,"kek":2037,"Ġtie":2038,"Ġtrades":2039,"Ġcre":2040,"Ġcont":2041,"Ġcons":2042,"ðŁĴ¯":2043,"ðŁĺĦ":2044,"Ġput":2045,"Ġhas":2046,"Ġhand":2047,"Ġhold":2048,"Ġhigh":2049,"ĠVider":2050,"Ġgirl":2051,"iff":2052,"emi":2053,"Ġyears":2054,"endon":2055,"endor":2056,"Neil":2057,"umb":2058,"Ġnoth":2059,"eek":2060,"rain":2061,"Ġlong":2062,"ichi":2063,"press":2064,"Charl":2065,"ĠJunk":2066,"ĠJones":2067,"ĠJacksonville":2068,"odes":2069,"ours":2070,"aki":2071,"aint":2072,"Ġ48":2073,"Stalin":2074,"obal":2075,"onserv":2076,"Ġone":2077,"That":2078,"ATE":2079,"ATI":2080,"oper":2081,"ondon":2082,"ĠSpread":2083,"gineer":2084,"âĻ¡":2085,"ĠThird":2086,"ĠThread":2087,"5670":2088,"Ġred":2089,"ĠAmer":2090,"ĠAmin":2091,"Alan":2092,"avers":2093,"ega":2094,"ude":2095,"ĠChoo":2096,"Span":2097,"Spurs":2098,"arsity":2099,"ERO":2100,"rying":2101,"ĠMax":2102,"ĠPrinc":2103,"ĠProtect":2104,"ĠProfess":2105,"ocialist":2106,"layer":2107,"âĺŃ":2108,"ought":2109,"HIP":2110,"eputy":2111,"Ġhead":2112,"ðŁĶĶðŁĶĶ":2113,"TOM":2114,"MAGA":2115,"Mark":2116,"Marlbor":2117,"à¼¼":2118,"Ġchat":2119,"eveloper":2120,"Ġ1600":2121,"ealth":2122,"ĠTroy":2123,"CSS":2124,"other":2125,"ĠQuam":2126,"ĠAna":2127,"ĠAng":2128,"ĠArkansas":2129,"!!!":2130,"DET":2131,"Esse":2132,"Plus":2133,"Platinum":2134,"Scotland":2135,"TEAM":2136,"Ġstill":2137,"ĠPark":2138,"Ġdoing":2139,"AAAAAAAAAAAAAAAA":2140,"Barcel":2141,"Barista":2142,"Grand":2143,"Minnes":2144,"Medioc":2145,"OnePlus":2146,"ĠBeavers":2147,"Choose":2148,"Ġhappen":2149,"Blood":2150,"Cheese":2151,"Dragon":2152,"Skooma":2153,"Ġenjoy":2154,"Ġneed":2155,"Ġquiet":2156,"ĠâĢĵ":2157,"ĠCorndog":2158,"ĠNOTHING":2159,"ĠOctober":2160,"raven":2161,"redditor":2162,"Broncos":2163,"John":2164,"Lukas":2165,"ything":2166,"Ġ:(":2167,"ĠSheriff":2168,"ĠBandwag":2169,"italist":2170,"ĠPowerColor":2171,"ĠRams":2172,"Ġwrong":2173,"vegan":2174,"ðŁĲĬðŁĲĬ":2175,"Alpha":2176,"avaliers":2177,"ĠAspiring":2178,"ollowing":2179,"TORS":2180,"Flying":2181,"Hitler":2182,"Leinster":2183,"Murica":2184,"Robot":2185,"RAPTORS":2186,"Saints":2187,"Titans":2188,"Vikings":2189,"Xeon":2190,"Yasiel":2191,"aught":2192,"nolia":2193,"puter":2194,"western":2195,"âĦ¢":2196,"âĪĨ":2197,"åįĲ":2198,"Ġrob":2199,"esident":2200,"ĠSooners":2201,"ĠSaturday":2202,"ĠCapitalist":2203,"ĠCostayne":2204,"ĠColorado":2205,"ĠClinton":2206,"ĠCyclones":2207,"ĠGophers":2208,"ĠGaiman":2209,"ĠGigabyte":2210,"ittsburg":2211,"ĠLegends":2212,"ĠKevin":2213,"estroy":2214,"Ġconsent":2215,"ĠVideri":2216,"ĠJunkie":2217,"StalinåįĲ":2218,"onservative":2219,"Marlboro":2220,"Barcelona":2221,"Minnesota":2222,"Mediocre":2223,"ĠBandwagon":2224,"'re":2225,")(":2226,"))":2227,")/":2228,"**":2229,".\"":2230,"02":2231,"07":2232,"053":2233,"117":2234,"25":2235,"27":2236,"29":2237,"250":2238,"32":2239,"315":2240,"370":2241,"40":2242,"47":2243,"437":2244,"424":2245,"474":2246,"570":2247,"63":2248,"66":2249,"680":2250,"6100":2251,"72":2252,"712":2253,"770":2254,"719":2255,"7700":2256,"82":2257,"86":2258,"800":2259,"826":2260,"853":2261,"92":2262,"97":2263,"An":2264,"Ap":2265,"As":2266,"Az":2267,"Aid":2268,"Ast":2269,"AGB":2270,"Adam":2271,"Abs":2272,"BS":2273,"Bu":2274,"Bat":2275,"Bas":2276,"Big":2277,"Bla":2278,"BOT":2279,"BUS":2280,"Bul":2281,"Buff":2282,"Bring":2283,"CH":2284,"CK":2285,"CT":2286,"CW":2287,"Car":2288,"Cha":2289,"Chi":2290,"Card":2291,"CAAAA":2292,"CTO":2293,"CAR":2294,"Conn":2295,"Capt":2296,"Chiefs":2297,"Crot":2298,"Casta":2299,"Crying":2300,"DI":2301,"DP":2302,"Des":2303,"Dar":2304,"Den":2305,"Dig":2306,"Dev":2307,"Dem":2308,"Dang":2309,"Does":2310,"Deputy":2311,"DTOM":2312,"Em":2313,"Eur":2314,"Einst":2315,"FI":2316,"FK":2317,"FU":2318,"Fer":2319,"Far":2320,"Fam":2321,"Fal":2322,"Fri":2323,"Fil":2324,"Fland":2325,"Fender":2326,"Fuse":2327,"GH":2328,"GN":2329,"GP":2330,"GS":2331,"GY":2332,"Gl":2333,"Gen":2334,"Gast":2335,"Gord":2336,"Great":2337,"Germ":2338,"HZ":2339,"He":2340,"How":2341,"Hun":2342,"Hul":2343,"Head":2344,"Houston":2345,"Hello":2346,"HRT":2347,"IO":2348,"Iw":2349,"IBUS":2350,"IGN":2351,"JC":2352,"Jorg":2353,"Jack":2354,"Jul":2355,"Junk":2356,"KC":2357,"KD":2358,"KY":2359,"Kat":2360,"Kit":2361,"King":2362,"Keep":2363,"Kentucky":2364,"Kool":2365,"LE":2366,"Lo":2367,"Lee":2368,"Law":2369,"Look":2370,"Louis":2371,"London":2372,"Ma":2373,"Mc":2374,"Mr":2375,"Mon":2376,"Mat":2377,"Mal":2378,"Mand":2379,"Mil":2380,"Mim":2381,"Mag":2382,"Mant":2383,"Mech":2384,"Morth":2385,"Miami":2386,"Moon":2387,"MIL":2388,"Make":2389,"NC":2390,"NJ":2391,"NT":2392,"Na":2393,"Non":2394,"Nev":2395,"Night":2396,"Nast":2397,"Name":2398,"NAT":2399,"NER":2400,"OM":2401,"OP":2402,"OR":2403,"Ob":2404,"Ol":2405,"Over":2406,"OPS":2407,"Oct":2408,"OVE":2409,"OKC":2410,"PD":2411,"PE":2412,"PH":2413,"PI":2414,"PP":2415,"Po":2416,"Paid":2417,"Pois":2418,"Panthers":2419,"Pix":2420,"PIC":2421,"Paul":2422,"QS":2423,"RA":2424,"RL":2425,"RX":2426,"Rh":2427,"Ro":2428,"Ren":2429,"Row":2430,"Rog":2431,"Rest":2432,"Raid":2433,"RIS":2434,"Rapt":2435,"Riot":2436,"SG":2437,"SV":2438,"Sl":2439,"Ser":2440,"San":2441,"Sen":2442,"She":2443,"Sil":2444,"Squ":2445,"Sys":2446,"SKA":2447,"Super":2448,"Sydney":2449,"Semi":2450,"SATI":2451,"STEAM":2452,"SPIC":2453,"TM":2454,"TN":2455,"TT":2456,"Ten":2457,"Tent":2458,"Tens":2459,"TKD":2460,"UA":2461,"UK":2462,"Up":2463,"Us":2464,"Upp":2465,"UCP":2466,"VY":2467,"Va":2468,"Vin":2469,"Val":2470,"VUn":2471,"VKB":2472,"WA":2473,"We":2474,"Wy":2475,"Wes":2476,"Wish":2477,"WCS":2478,"WVUn":2479,"XBL":2480,"Zj":2481,"][":2482,"ax":2483,"ail":2484,"ave":2485,"aNo":2486,"ause":2487,"aily":2488,"br":2489,"bt":2490,"bec":2491,"back":2492,"bug":2493,"bring":2494,"bah":2495,"boop":2496,"beep":2497,"butt":2498,"cu":2499,"cer":2500,"cing":2501,"ced":2502,"cem":2503,"cap":2504,"crib":2505,"cio":2506,"clave":2507,"cIw":2508,"den":2509,"dom":2510,"dry":2511,"died":2512,"down":2513,"dead":2514,"dict":2515,"democratic":2516,"dHead":2517,"eh":2518,"eol":2519,"eed":2520,"eur":2521,"eop":2522,"fo":2523,"fw":2524,"fer":2525,"fol":2526,"fri":2527,"fter":2528,"gb":2529,"gs":2530,"gu":2531,"gar":2532,"gal":2533,"ged":2534,"gay":2535,"gladiator":2536,"hh":2537,"hv":2538,"hing":2539,"hel":2540,"hir":2541,"hus":2542,"hard":2543,"ier":2544,"iat":2545,"ien":2546,"iol":2547,"ique":2548,"ja":2549,"ko":2550,"kers":2551,"kill":2552,"lo":2553,"ls":2554,"lu":2555,"low":2556,"loo":2557,"lif":2558,"line":2559,"like":2560,"luff":2561,"mg":2562,"mes":2563,"men":2564,"mand":2565,"mormon":2566,"ny":2567,"nad":2568,"now":2569,"nack":2570,"oic":2571,"over":2572,"par":2573,"pre":2574,"pur":2575,"pic":2576,"pro":2577,"port":2578,"pasta":2579,"pful":2580,"ports":2581,"rr":2582,"rar":2583,"rand":2584,"rus":2585,"rum":2586,"rust":2587,"sch":2588,"siers":2589,"sUp":2590,"to":2591,"tw":2592,"tin":2593,"tus":2594,"titt":2595,"tober":2596,"tenh":2597,"uar":2598,"uate":2599,"uild":2600,"uine":2601,"uars":2602,"ured":2603,"vin":2604,"vir":2605,"vador":2606,"vette":2607,"wh":2608,"way":2609,"wear":2610,"ward":2611,"warf":2612,"wau":2613,"wealth":2614,"wls":2615,"wsUp":2616,"xs":2617,"xast":2618,"yb":2619,"yo":2620,"yBot":2621,"ywhere":2622,"yvern":2623,"youtub":2624,"ypasta":2625,"zers":2626,"zda":2627,"¥³":2628,"§å":2629,"ªŀ":2630,"®ï¼":2631,"¯âĺ":2632,"°Ð":2633,"°ï¼":2634,"±or":2635,"²ł":2636,"²ï¼¥ï¼":2637,"³ï¼¥ï¼":2638,"ºcio":2639,"½¡":2640,"Ã±or":2641,"Ãºcio":2642,"Ä±":2643,"Ì¥":2644,"Ð°Ð":2645,"Ñģ":2646,"à²ł":2647,"âĳ":2648,"ãĥ":2649,"å¥³":2650,"æķ":2651,"æĸ":2652,"æľ":2653,"èªŀ":2654,"ï½¡":2655,"Ġ.":2656,"Ġ=":2657,"Ġu":2658,"ĠÃ":2659,"Ġal":2660,"Ġad":2661,"Ġex":2662,"Ġim":2663,"Ġif":2664,"Ġend":2665,"Ġanim":2666,"Ġ70":2667,"Ġ03":2668,"Ġout":2669,"Ġown":2670,"Ġlet":2671,"Ġrac":2672,"Ġover":2673,"Ĳ¯âĺ":2674,"ķï¸ı":2675,"ŀÌĹ":2676,"ŁÍī":2677,"łï¸ı":2678,"erco":2679,"erry":2680,"inet":2681,"inct":2682,"ony":2683,"onth":2684,"aney":2685,"ance":2686,"anzo":2687,"orst":2688,"oria":2689,"orris":2690,"orbacks":2691,"esent":2692,"esap":2693,"ĠSW":2694,"ĠSi":2695,"ĠSm":2696,"ĠSal":2697,"ĠSch":2698,"ĠSec":2699,"ĠSent":2700,"ĠSAA":2701,"ĠSqu":2702,"ĠSTR":2703,"ĠSea":2704,"ĠSurr":2705,"ĠSlave":2706,"ĠSydney":2707,"ĠSSD":2708,"ĠSaint":2709,"ĠSnack":2710,"ĠTB":2711,"ĠTX":2712,"ĠTi":2713,"ĠTar":2714,"ĠTen":2715,"ĠTall":2716,"ĠTop":2717,"ĠTeb":2718,"ĠTrans":2719,"ĠTalk":2720,"ĠTHE":2721,"ĠTwo":2722,"ĠTrain":2723,"ĠTWCS":2724,"arco":2725,"arza":2726,"ĠCA":2727,"ĠCR":2728,"ĠCl":2729,"ĠCo":2730,"ĠCate":2731,"ĠCamp":2732,"ĠCity":2733,"ĠCob":2734,"ĠCul":2735,"ĠCup":2736,"ĠCru":2737,"ĠConn":2738,"ĠConf":2739,"ĠCrewman":2740,"ĠCavaliers":2741,"ĠConservative":2742,"ĠCrus":2743,"ames":2744,"isco":2745,"ĠBS":2746,"ĠBack":2747,"ĠBron":2748,"ĠBots":2749,"ĠBea":2750,"ĠBrew":2751,"enix":2752,"ersity":2753,"ersburg":2754,"that":2755,"theb":2756,"cky":2757,"asa":2758,"asm":2759,"igation":2760,"igged":2761,"ĠAd":2762,"ĠAuburn":2763,"ĠAlt":2764,"ĠAbout":2765,"ĠAeol":2766,"oun":2767,"ĠGT":2768,"ĠGl":2769,"ĠGo":2770,"ĠGem":2771,"ĠGod":2772,"ĠGreg":2773,"ĠGND":2774,"ĠGalin":2775,"ĠGladiator":2776,"ĠGarza":2777,"its":2778,"itas":2779,"itter":2780,"itsu":2781,"itigation":2782,"ali":2783,"als":2784,"alan":2785,"aling":2786,"ĠMe":2787,"ĠMk":2788,"ĠMon":2789,"ĠMen":2790,"ĠMed":2791,"ĠMoo":2792,"ĠMus":2793,"ĠMill":2794,"ĠMess":2795,"ĠMiss":2796,"ĠMust":2797,"ĠMore":2798,"ĠMelbourne":2799,"ĠMids":2800,"ĠMalc":2801,"ĠMarin":2802,"ĠMother":2803,"ĠMHZ":2804,"reak":2805,"chie":2806,"chann":2807,"olas":2808,"olic":2809,"olith":2810,"olfi":2811,"ĠPin":2812,"ĠPri":2813,"ĠPoo":2814,"ĠPet":2815,"ĠPast":2816,"ĠPra":2817,"ĠPie":2818,"ĠPlay":2819,"ĠPoke":2820,"ĠPho":2821,"ĠPerson":2822,"ĠPittsburg":2823,"eld":2824,"eli":2825,"elich":2826,"rix":2827,"rian":2828,"ome":2829,"oming":2830,"omot":2831,"ĠHR":2832,"ĠHoo":2833,"ĠHond":2834,"ĠHard":2835,"ĠHots":2836,"ĠHDD":2837,"ĠHillary":2838,"ĠHuman":2839,"ĠHERO":2840,"ĠHanzo":2841,"ĠStanford":2842,"ĠStates":2843,"ĠStolfi":2844,"ĠStrix":2845,"ĠRond":2846,"ĠReg":2847,"ĠRaz":2848,"ĠRally":2849,"ĠRose":2850,"ĠRaj":2851,"ĠRuss":2852,"ĠRBI":2853,"ĠRomer":2854,"ades":2855,"aders":2856,"admin":2857,"ura":2858,"ures":2859,"urant":2860,"ĠDO":2861,"ĠDon":2862,"ĠDest":2863,"ĠDav":2864,"ĠDream":2865,"ĠDeveloper":2866,"ĠDaught":2867,"ĠDurant":2868,"leB":2869,"leh":2870,"ley":2871,"lets":2872,"ĠFor":2873,"ĠFies":2874,"ĠFish":2875,"ĠFeat":2876,"ĠFlair":2877,"ĠFalc":2878,"ĠFeet":2879,"ĠFNa":2880,"ĠFTM":2881,"stinct":2882,"Ġbo":2883,"Ġbus":2884,"Ġbitch":2885,"Ġbonk":2886,"Ġbills":2887,"Ġbtw":2888,"owdown":2889,"ĠNC":2890,"ĠNich":2891,"ĠNord":2892,"ĠNav":2893,"ĠNew":2894,"ĠNorris":2895,"Ġdish":2896,"Ġdown":2897,"Ġdemocratic":2898,"Ġdamm":2899,"Ġdestroy":2900,"Ġdaily":2901,"head":2902,"heart":2903,"eta":2904,"etts":2905,"una":2906,"une":2907,"unch":2908,"unction":2909,"undry":2910,"ĠIra":2911,"ĠIMP":2912,"ĠBut":2913,"ĠBuick":2914,"ĠBusch":2915,"ico":2916,"ican":2917,"iced":2918,"icut":2919,"icated":2920,"iliz":2921,"ilib":2922,"ĠLv":2923,"ĠLag":2924,"ĠLord":2925,"ĠLea":2926,"ĠLead":2927,"Ġwent":2928,"Ġwish":2929,"Ġwash":2930,"Ġwood":2931,"Ġwould":2932,"Ġwaifu":2933,"Ġwcing":2934,"irly":2935,"irty":2936,"irming":2937,"usetts":2938,"Ġsc":2939,"Ġson":2940,"Ġsex":2941,"Ġsha":2942,"Ġsub":2943,"Ġsee":2944,"Ġsuck":2945,"Ġsac":2946,"Ġsupp":2947,"Ġsalty":2948,"Ġsocialist":2949,"isting":2950,"ecs":2951,"ecel":2952,"ĠWA":2953,"ĠWar":2954,"ĠWill":2955,"ĠWere":2956,"ĠWard":2957,"ĠWho":2958,"ĠWorld":2959,"ĠWaifu":2960,"ĠWater":2961,"ĠWHIP":2962,"ĠWyvern":2963,"uto":2964,"uts":2965,"utch":2966,"utism":2967,"Ġmem":2968,"Ġmob":2969,"Ġmerry":2970,"Ġmonth":2971,"ĠOur":2972,"ĠOHL":2973,"ĠOklahoma":2974,"ĠOrang":2975,"ĠOUA":2976,"Ġfr":2977,"Ġfan":2978,"Ġfire":2979,"Ġfanc":2980,"Ġflair":2981,"Ġfeder":2982,"Ġfought":2983,"Ġfollowing":2984,"Ġfunction":2985,"ĠYes":2986,"ĠYou":2987,"ĠYears":2988,"ĠYoutub":2989,"ĠYelich":2990,"Ġapp":2991,"Ġautism":2992,"ĠKe":2993,"ĠKHL":2994,"ĠKOT":2995,"ĠEQ":2996,"ĠEU":2997,"ĠEast":2998,"ĠENER":2999,"ĠERA":3000,"ime":3001,"immer":3002,"imgur":3003,"eve":3004,"ional":3005,"Ġ15":3006,"Ġ144":3007,"Ġ1800":3008,"Ġthem":3009,"ogic":3010,"ogdon":3011,"eston":3012,"estar":3013,"estling":3014,"kee":3015,"oss":3016,"osu":3017,"Ġtak":3018,"Ġtake":3019,"agram":3020,"aguars":3021,"ĠUAB":3022,"Ġ28":3023,"Ġ200":3024,"Ġ268":3025,"entle":3026,"Ġcat":3027,"Ġcut":3028,"Ġcop":3029,"Ġcould":3030,"new":3031,"nell":3032,"ðŁį":3033,"ðŁĳ":3034,"Ġper":3035,"Ġpay":3036,"Ġpart":3037,"Ġperson":3038,"Ġpeop":3039,"Ġhis":3040,"Ġhug":3041,"Ġhours":3042,"illing":3043,"ĠVendor":3044,"ĠVarsity":3045,"Ġgb":3046,"Ġgr":3047,"Ġgod":3048,"Ġgame":3049,"Ġgive":3050,"Ġgeek":3051,"ĠGame":3052,"roll":3053,"roid":3054,"emple":3055,"170":3056,"1700":3057,"ĠNHLR":3058,"Nebr":3059,"eye":3060,"umni":3061,"Ġnon":3062,"Ġnow":3063,"Ġname":3064,"raf":3065,"raft":3066,"Ġlate":3067,"Ġlash":3068,"Ġlitigation":3069,"Ġ38":3070,"Ġ318":3071,"Ġ3712":3072,"esses":3073,"earch":3074,"ĠJr":3075,"ĠJoy":3076,"ĠBucky":3077,"CFI":3078,"ody":3079,"ppy":3080,"ief":3081,"ieature":3082,"ctor":3083,"lybt":3084,"alls":3085,"alled":3086,"allow":3087,"lord":3088,"arter":3089,"2016":3090,"2012":3091,"2073":3092,"2088":3093,"Ġ42":3094,"Ġ4570":3095,"Star":3096,"Stick":3097,"aper":3098,"cell":3099,"ĠUnverified":3100,"USMC":3101,"USNT":3102,"communicated":3103,"ATP":3104,"ope":3105,"ennium":3106,"oodle":3107,"oodraven":3108,"Ġ500":3109,"Ġ650":3110,"Ġ603":3111,"inals":3112,"222":3113,"228":3114,"ithout":3115,"tern":3116,"ugar":3117,"ĠThust":3118,"ĠThunder":3119,"ĠThrot":3120,"184":3121,"quilib":3122,"season":3123,"Ġ960":3124,"141":3125,"osts":3126,"âĹ¡":3127,"Ġreally":3128,"ĠAmster":3129,"Alber":3130,"Alumni":3131,"udd":3132,"ĠChar":3133,"Ġ107":3134,"Ġ1050":3135,"198":3136,"Spider":3137,"Specs":3138,"iversity":3139,"orto":3140,"ittalk":3141,"ĠDuke":3142,"rya":3143,"rone":3144,"Ġ84":3145,"Ġkit":3146,"Ġking":3147,"Ġknow":3148,"Ġknew":3149,"Ġru":3150,"Ġrest":3151,"Ġrigged":3152,"ĠMac":3153,"ĠMazda":3154,"ĠPrusa":3155,"ĠRead":3156,"Ġmeow":3157,"Ġ2016":3158,"4469":3159,"ãģ¥":3160,"ĠEngineer":3161,"âĹķâĢ¿":3162,"icker":3163,"âĺłï¸ı":3164,"ensland":3165,"ecticut":3166,"136":3167,"2672":3168,"epcIw":3169,"Ġvictor":3170,"Ġviol":3171,"ĠBlazers":3172,"boxgladiator":3173,"Ars":3174,"Art":3175,"Army":3176,"Arkansas":3177,"Princ":3178,"President":3179,"acy":3180,"âĢĻ":3181,"ĠZimmer":3182,"ĠBloke":3183,"ĠBlues":3184,"ĠBloodraven":3185,"372":3186,"532":3187,"FFF":3188,"FFFFF":3189,"Maria":3190,"Waiting":3191,"monwealth":3192,"oves":3193,"uffin":3194,"Ġjack":3195,"Ġjust":3196,"Ġjok":3197,"Ġchief":3198,"reddied":3199,"ĠYank":3200,"765611982088":3201,"Enoch":3202,"Enfor":3203,"Energ":3204,"izard":3205,"oise":3206,"ĠiOS":3207,"Ġlaug":3208,"Ġlaundry":3209,"Ġusers":3210,"Ġused":3211,"ĠScully":3212,"ĠScien":3213,"ĠCommun":3214,"ĠComputer":3215,"ĠCommonwealth":3216,"urgery":3217,"Ġdidn":3218,"ĠUSA":3219,"ĠUSC":3220,"ĠUSF":3221,"ĠUSHL":3222,"Ġclub":3223,"ĠVolcan":3224,"87437":3225,"ISS":3226,"phis":3227,"phoria":3228,"âľ¨":3229,"âľ¿":3230,"ĠNorthwestern":3231,"525":3232,"52136":3233,"AHDI":3234,"Beer":3235,"Becky":3236,"Catalan":3237,"Calvin":3238,"ILL":3239,"Northland":3240,"Queen":3241,"Quebec":3242,"actus":3243,"actuar":3244,"ralia":3245,"shoff":3246,"Ġà¼¼":3247,"ancisco":3248,"ĠMichael":3249,"ĠParent":3250,"Ġshower":3251,"Ġshittalk":3252,"1000":3253,"ANI":3254,"Grant":3255,"Medium":3256,"Rockets":3257,"Rocktober":3258,"UGW":3259,"____":3260,"iPad":3261,"iiii":3262,"meow":3263,"metto":3264,"ĠðŁĴ":3265,"ĠðŁĲ¯âĺ":3266,"Ġeverything":3267,"Ġeverywhere":3268,"ervation":3269,"ankt":3270,"archist":3271,"ĠBright":3272,"ĠBrogdon":3273,"ĠModerator":3274,"ologist":3275,"ĠPals":3276,"ĠPalmetto":3277,"ĠHercul":3278,"Ġblood":3279,"ĠElite":3280,"ĠJoe":3281,"ĠJohn":3282,"ĠMachado":3283,"5225":3284,"5225225":3285,"Blaney":3286,"CPL":3287,"Cheers":3288,"Exmormon":3289,"Excommunicated":3290,"NAVY":3291,"Western":3292,"achusetts":3293,"former":3294,"govern":3295,"ãĢģ":3296,"Ġequilib":3297,"inyasa":3298,"atches":3299,"ĠShorter":3300,"ĠShowdown":3301,"arma":3302,"ĠCornhus":3303,"igner":3304,"Ġwhy":3305,"Ġwhen":3306,"ĠOctane":3307,"ĠEsq":3308,"ĠEsports":3309,"hipmen":3310,"Ġproble":3311,"racuse":3312,"oooooooooooooooo":3313,"76561198287437":3314,"5776":3315,"ADHD":3316,"AYANI":3317,"Austria":3318,"Australia":3319,"BaldHead":3320,"Cloud":3321,"Doctor":3322,"ENT":3323,"EUphoria":3324,"Imgur":3325,"Indiana":3326,"Lyn":3327,"Lying":3328,"Onion":3329,"Original":3330,"STL":3331,"Secret":3332,"Tottenh":3333,"Underg":3334,"Underco":3335,"auresap":3336,"instagram":3337,"ĠSeÃ±or":3338,"ĠSyracuse":3339,"ĠTrash":3340,"ĠTrooper":3341,"ĠCorvette":3342,"ĠCornell":3343,"ĠCatter":3344,"theist":3345,"ĠManager":3346,"ĠMadrid":3347,"ĠPoint":3348,"ĠPoints":3349,"rificed":3350,"ĠHorned":3351,"ĠHornets":3352,"ĠDragons":3353,"ĠFrogs":3354,"Ġbecause":3355,"Ġbecome":3356,"ĠNotre":3357,"Ġdrink":3358,"ĠInter":3359,"ĠLonzo":3360,"ĠLonestar":3361,"ĠOnly":3362,"ĠOnager":3363,"hawks":3364,"ĠKingdom":3365,"ĠExtra":3366,"ðŁĮĲ":3367,"INFJ":3368,"INFP":3369,"Ġready":3370,"Ġreading":3371,"ĠBlackmon":3372,"Essex":3373,"Essendon":3374,"âĺħâĺħâĺħ":3375,"Automot":3376,"Actually":3377,"Bastion":3378,"CLG":3379,"Canada":3380,"Creator":3381,"Columb":3382,"ClawsUp":3383,"Confirming":3384,"Force":3385,"KSNA":3386,"Massachusetts":3387,"Nint":3388,"Official":3389,"Polish":3390,"Painkill":3391,"Postseason":3392,"Pacers":3393,"Pokey":3394,"Ravens":3395,"Reposts":3396,"VyUs":3397,"affe":3398,"family":3399,"fortunat":3400,"iques":3401,"iously":3402,"sheets":3403,"weather":3404,"Ġleft":3405,"ĠQueensland":3406,"anical":3407,"ĠSEC":3408,"ĠSqauresap":3409,"ĠShacker":3410,"ĠCanyons":3411,"ĠCivic":3412,"ĠBiology":3413,"ĠGenji":3414,"ĠGiants":3415,"ĠMKII":3416,"ĠMeridian":3417,"ĠMagic":3418,"ĠMakes":3419,"ĠHeels":3420,"ĠHarris":3421,"ĠHotty":3422,"heatware":3423,"ĠIdi":3424,"ĠIndiana":3425,"Ġmains":3426,"ĠEagles":3427,"kekz":3428,"Ġnothing":3429,"Ġlonger":3430,"Charlie":3431,"ĠSpreadsheets":3432,"Ġredd":3433,"ĠAmerican":3434,"Spanish":3435,"ĠPrincesses":3436,"ĠProtector":3437,"ĠProfessor":3438,"ĠAngels":3439,"Ġhappened":3440,"Ġquietkekz":3441,"Johntheb":3442,"Ġrobot":3443,"0533":3444,"4742":3445,"Apost":3446,"Astros":3447,"AGBAYANI":3448,"Batting":3449,"Basic":3450,"Black":3451,"Bulgar":3452,"Cardinals":3453,"CAAAAAHDI":3454,"Crotty":3455,"Castaic":3456,"Designer":3457,"Denver":3458,"Europe":3459,"Einstein":3460,"Ferrar":3461,"Falcons":3462,"Friend":3463,"Film":3464,"Flanders":3465,"GHz":3466,"Global":3467,"Genuine":3468,"Gaston":3469,"Gordon":3470,"Germany":3471,"Hulme":3472,"IBUSHI":3473,"Jorge":3474,"Junkrat":3475,"Kitshoff":3476,"Lawbring":3477,"Louisville":3478,"Maud":3479,"Monolith":3480,"Milwau":3481,"Mimi":3482,"Magnolia":3483,"Mantis":3484,"Mechanical":3485,"Morthal":3486,"Nevada":3487,"Nasty":3488,"NATO":3489,"Poison":3490,"Pixel":3491,"Rowbutt":3492,"Rogue":3493,"Raider":3494,"RISON":3495,"Raptors":3496,"SVHD":3497,"Sysadmin":3498,"SATIRE":3499,"SPICY":3500,"Upper":3501,"Wyoming":3502,"Wesley":3503,"WVUnick":3504,"ZjL":3505,"aNoZ":3506,"criber":3507,"friends":3508,"gsi":3509,"helpful":3510,"nadhir":3511,"tittieature":3512,"wlsearch":3513,"xastik":3514,"youtube":3515,"®ï¼´":3516,"°ï¼²ï¼¥ï¼":3517,"³ï¼¥ï¼®ï¼´":3518,"âĳ®":3519,"æķĻ":3520,"æĸĩ":3521,"Ġaddict":3522,"Ġ038":3523,"Ġracist":3524,"ķï¸ıâľ¨":3525,"inetic":3526,"ĠSalvador":3527,"ĠSAAB":3528,"ĠSurrender":3529,"ĠTebow":3530,"ĠTranscriber":3531,"ĠTraining":3532,"ĠCampine":3533,"ĠCobra":3534,"ĠCult":3535,"ĠConforto":3536,"ĠCrusaders":3537,"ĠBrewers":3538,"ĠAeolus":3539,"ĠGalinha":3540,"ĠMedia":3541,"ĠMoochie":3542,"ĠMillennium":3543,"ĠMustang":3544,"ĠMidshipmen":3545,"ĠMalcolm":3546,"ĠMariners":3547,"channel":3548,"ĠPoobah":3549,"ĠPetersburg":3550,"ĠPraise":3551,"ĠPokemon":3552,"ĠPhoenix":3553,"ĠHoosiers":3554,"ĠHonda":3555,"ĠHotspur":3556,"ĠRondo":3557,"ĠRegal":3558,"ĠRazorbacks":3559,"ĠRajon":3560,"ĠRomero":3561,"ĠDestiny":3562,"ĠDreams":3563,"ĠDaughters":3564,"ĠFiesta":3565,"ĠFeatured":3566,"ĠFalcon":3567,"ĠFNaF":3568,"ĠNicholas":3569,"ĠNordiques":3570,"ĠNavy":3571,"Ġdishes":3572,"Ġdammit":3573,"ĠIraq":3574,"ĠIMPRISON":3575,"ilization":3576,"ĠLagaffe":3577,"Ġsacrificed":3578,"Ġsupport":3579,"ĠWillis":3580,"ĠWorlds":3581,"Ġmobile":3582,"Ġmerryweather":3583,"ĠOrange":3584,"Ġfancy":3585,"Ġfederal":3586,"Ġfunctioning":3587,"ĠYoutuber":3588,"ĠKOTA":3589,"Ġtaking":3590,"Ġcopypasta":3591,"Ġpeople":3592,"Nebraska":3593,"Ġlashes":3594,"Ġ3187":3595,"StickyBot":3596,"USNTDP":3597,"ĠThustMaster":3598,"ĠThrottle":3599,"ĠAmsterdam":3600,"Alberta":3601,"âĹķâĢ¿âĹķ":3602,"epcIwZjL":3603,"Ġvictory":3604,"Ġviolate":3605,"Princes":3606,"ĠZimmerman":3607,"Ġjokes":3608,"reddiedyke":3609,"76561198208852136":3610,"Enforced":3611,"Energy":3612,"ĠScience":3613,"ĠVolcano":3614,"Calvinist":3615,"Ġshittalking":3616,"ĠðŁĲ¯âĺķï¸ıâľ¨":3617,"ĠHercules":3618,"government":3619,"Ġequilibrium":3620,"ĠCornhuskers":3621,"Ġproblems":3622,"76561198287437532":3623,"Tottenham":3624,"Undergrad":3625,"Undercover":3626,"Automotive":3627,"Columbia":3628,"Painkiller":3629,"fortunately":3630,"ĠSqauresapce":3631,"Johntheboss":3632,"Bulgaria":3633,"CAAAAAHDIFFFFF":3634,"Ferrari":3635,"Lawbringer":3636,"Milwaukee":3637,"°ï¼²ï¼¥ï¼³ï¼¥ï¼®ï¼´":3638}